
/**
  ******************************************************************************
  * @file    network_data.c
  * @author  AST Embedded Analytics Research Platform
  * @date    Tue Sep 27 21:46:39 2022
  * @brief   AI Tool Automatic Code Generator for Embedded NN computing
  ******************************************************************************
  * @attention
  *
  * Copyright (c) 2021 STMicroelectronics.
  * All rights reserved.
  *
  * This software is licensed under terms that can be found in the LICENSE file
  * in the root directory of this software component.
  * If no LICENSE file comes with this software, it is provided AS-IS.
  ******************************************************************************
  */
#include "network_data.h"
#include "ai_platform_interface.h"

AI_API_DECLARE_BEGIN

AI_ALIGNED(32)
const ai_u64 s_network_network_weights_array_u64[ 5150 ] = {
  0x3e7f70eb3e4a88c0U, 0xbec72fb6bcaeb34bU, 0xbea76f34bf1f727eU, 0xbe1f3ed93ea91b45U,
  0xbf368d353db80ddeU, 0xbebb84763c226a48U, 0x3e9542413d9ea101U, 0x3eb076d73eba1c90U,
  0x3d466a78bf5166bfU, 0x3e5510edbe677bd0U, 0x415dec9a3e72540dU, 0x411cf3fd411d41acU,
  0xbff9412c3b096a80U, 0xbdc79980c01247aaU, 0x3ec7f7c8be92655fU, 0xbd986642bd9bc863U,
  0xbd56fc953c6537b8U, 0x3e2292e0bee26c56U, 0x3d27832cbefad2f8U, 0xbdc2048dbf1697aeU,
  0xbd7628943e75e208U, 0x3cdbd29a3e90b48eU, 0x3ef6a720be8aadd1U, 0xbd8d87953e0f09f3U,
  0x3f05ae353d10905bU, 0xbeeb9bbcbe8a07f7U, 0x3ecdf8963e0fbf3aU, 0xbe672289bc3e2ca2U,
  0x3ed71fc63dcd6d76U, 0x3da9b84a3d323282U, 0x3edc714f3e4bfe5eU, 0xbe2783033e099c64U,
  0xbcc888c7beae1078U, 0xbe90b15fbd5c3eeeU, 0xbe56f4753dc815e3U, 0x3e8fb39a3e8a22fbU,
  0xbda6d5543dc1fba5U, 0xbe77ad613de42e19U, 0xbeb7df123e0457beU, 0xbe89c85bbec63044U,
  0x3e0b3373be9cde4dU, 0xbe49478ebe188058U, 0xbd0ed940beaed021U, 0xbdebd31abdf03548U,
  0xbe692fc53d8cf0fbU, 0xbe9842c1be693840U, 0x3de432c4beac5c1bU, 0xbc86d8a9bec8f822U,
  0x3db1ffe3be6402fbU, 0xbeb56a083dc8f55bU, 0x3ea367eb3e676ecaU, 0xbe02f930bc31bfc4U,
  0x3eca051fbda485c1U, 0x4029d07e3e629608U, 0x3f9d8b7b40236c18U, 0x40361a5940296a22U,
  0xbdd0641abe58c8aeU, 0xbf7cb88cbe29e694U, 0xbe119166bf7589b4U, 0xbde799743cb09399U,
  0x3db43a473e097b16U, 0xbe9f5a75be6c2687U, 0xbd382088bf2ac6b7U, 0xbe0ddf4e3e4ae502U,
  0xbf4e1448bec9b41eU, 0xbdff4de8be888243U, 0xbd1786d8bca7d504U, 0xbe1a0e833ec02c28U,
  0x3ed93f18bea23147U, 0x3e583f143e7043eeU, 0x3e2e9f3e3ef7eecaU, 0x3e3d1a81bd9c1048U,
  0x3e8647aebd80e256U, 0xbd89a10f3d42602eU, 0xbef6f90dbe01cb5fU, 0xbe74e0bbbe87b6e2U,
  0x3e2c64ddbd298907U, 0xbf01c467bd733326U, 0xbe6a889f3e3665f8U, 0x3e11f2a4be0538d2U,
  0x3eb744a13cf0cb3cU, 0xbec6faf7bd91bc75U, 0x3d345b3f3e8132c8U, 0xbe986397be5fcae1U,
  0xbf2c7232be55542bU, 0xbd81bb2bbe796317U, 0xbe72f55ebdec6a05U, 0x3e1be2c53ceabc17U,
  0xbd576922bc9ba01dU, 0xbde9b2e3beb19553U, 0xbe76afa13d732d54U, 0xbed7e07ebd8e9b3fU,
  0x3d03299b3e937ea1U, 0xbeaecea63d5df974U, 0x3d1ae596bcc32b58U, 0x3ea50adabe7dd126U,
  0x3e4c895fbd0f14fbU, 0x3ead01f93e7ecffcU, 0xbe10c6143d7a7b1cU, 0x3d3524a93e46014dU,
  0xbc8a7362bd1f5f7cU, 0xbe8823e43ebb1b46U, 0xbc98b7103cb517b4U, 0x3e5da89ebd0afc47U,
  0x3ecf0f8d3efd363eU, 0xbe2682303e86ab8eU, 0x3f07e11c3e81605dU, 0xbe19dd363e72549bU,
  0x3b17f108bd939c43U, 0x3e3bb380beefc44eU, 0x3e0069e9bc411f6eU, 0x3caf3079bea06427U,
  0xbef4b525bdfd23d5U, 0xbe0d1d793e83fd63U, 0x3de12275be29f75aU, 0x3e235e8b3ed7f94fU,
  0xbd93710bbe36df49U, 0xbe90230fbd96a2bdU, 0xbe38700e3e4f8631U, 0x3eaffb153ddd81baU,
  0xbea5d966bd2d05f2U, 0xbe1d6bf63c98ab07U, 0x3e4a4c98bb679a39U, 0xbe5ab52e3e37674aU,
  0x3ea3411dbe75d961U, 0x3ec10dbfbd76b467U, 0xbdd83d6dbe1bc60eU, 0xbe2c70d9bcc1f23fU,
  0xbdfd7420be58db61U, 0xbde3d0d0be38642cU, 0xbde5a066be68c9b0U, 0xbeab18bebea269f5U,
  0x3e3d5bec3de6ba57U, 0xbb0a26553edd81cdU, 0xbd1bfd0abd947275U, 0x3d85d02ebe95411bU,
  0x3dc574b9be595bd5U, 0x3caae22fbebc3c01U, 0x3db560363e0fd5fbU, 0xbedf5531be880827U,
  0xbecfda92be1264a1U, 0x3e503e18be83f56dU, 0xbe8c3e853ce0b360U, 0xbdc74463be3b010cU,
  0x3d14bf5fbe0f92c1U, 0x3e8495c03e776597U, 0x3d05ee003deebd11U, 0x3d9e65b73e413b7dU,
  0xbdec9c293eba3a92U, 0xbd6514e1bed63648U, 0x3e8fdd513e2047deU, 0xbdf39a6ebe01c27cU,
  0xbe558d57bcf0b8e6U, 0xbe6123b33e5c25b6U, 0xbdc27dfe3e80d7bbU, 0xbe6d8e5bbddd7621U,
  0xbd40cc3dbe887be6U, 0x3e7fdbb6bd43af86U, 0x3e0516343e58a6b7U, 0xbecf040ebdb4bc5eU,
  0x3be11fa3bb3be315U, 0x3d5798a1bdb7f8faU, 0xbdb0645dbee44a05U, 0x4006842abe7dea37U,
  0x40dd01d43fe09dd7U, 0x3fa8549c3fe5456dU, 0x3fff704d4024874eU, 0x4017ccf440983738U,
  0xbf134bde403433b3U, 0xbdf23c03bd82b8f2U, 0xbe351c06be9434d9U, 0xbf6fcd54bea50f52U,
  0xbe986072bd3a0c1cU, 0x3de5bbebbe8e4afeU, 0xbd1f2b73bd903b4eU, 0xbde1c7783de32809U,
  0x3e5122933d4bcaa4U, 0xbeb39d473e34d09cU, 0xbd8a22753e02e7adU, 0xbe4d0061be031b90U,
  0xbe3ce432bf0808abU, 0xbe5920de3d37f62cU, 0x3e2926f0be8b8d53U, 0x3e9b4451be96d6baU,
  0xbe733421bc2c1534U, 0x3df111ec3ef231aeU, 0xbe8885fbbe3e87e4U, 0xbd345d28bea32b38U,
  0xbe4749fe3e53a6ccU, 0x3d330f69be3b40e1U, 0xbe93dc653ebec6c7U, 0x3f01cd193e90c049U,
  0x3e8655cabe0a56b6U, 0xbe1fb3f1be86932fU, 0xbe33bd203e635b1eU, 0xbe13a22d3e0e3362U,
  0x3ee13155bda2eccbU, 0xbd58ff39bf0f6f53U, 0x3e1e473d3cbc2ad6U, 0xbe24d3debe434dc1U,
  0x3e46ad483e1246aeU, 0xbe82d2bc3e8ba302U, 0x3e8891cc3d27b306U, 0x3e8e52983eb8460fU,
  0xbdd9a4043e2bf61fU, 0xbda984043e4aa209U, 0x3e71630bbe96f9b2U, 0xbe1461053e8c88bdU,
  0xbd2637ca3e4cf95fU, 0x3de450b5be85cd60U, 0xbec752443d970d2eU, 0x3d8928f83d3fbcdcU,
  0xbe4909aebcc90276U, 0xbe2f6a5cbe3ec6efU, 0xbc83cfe0bee95a41U, 0xbec03410bf10c890U,
  0xbe4c06243cef700eU, 0x3e50e95cbe89a2f9U, 0x3e3649fdbdb1bb0bU, 0x3e1b336bbe53d182U,
  0xbeacc36c3cdafbbeU, 0xbdd5074bbe1093e8U, 0x3e1d10b83dba9ce2U, 0xbb8a62103e0c32adU,
  0x3bcde0c6be2f33fcU, 0xbcb9ee643f1a3521U, 0x3e8222fbbebec965U, 0x3db1a6ee3d954c86U,
  0xbe1395393e1edd03U, 0x3e8ab1a63e70259aU, 0xbe1703ad3e40bdb7U, 0xbcc0b635bed6e455U,
  0xbe4c5ea03ec8d84aU, 0xbe83ac153e3f3a4aU, 0xbe194d9d3d6ebaf8U, 0xbcb814ccbe2b45daU,
  0x3cbfd7873e366713U, 0xbf2838f63e19c714U, 0x3e3e904abd099191U, 0x3e8556833e74afb9U,
  0x3e8e14aebda2a603U, 0xbd9ce529bedc98f7U, 0xbdeb0da03e415a05U, 0xbe4026c33db44c69U,
  0x3e793ccbbe47896eU, 0xbd00eb243ce70a05U, 0x3e2277d63e84ea6eU, 0x3f143ea6be8ba393U,
  0x3d56a671bdb2e1cdU, 0x3e852dfdbd684f99U, 0xbe3c3258bdaf0a23U, 0x3ea79d023c5544a3U,
  0xbcb0826ebeff998fU, 0x3ea4f5643e34cac5U, 0xbe9365a7bec6ae15U, 0xbe954c3bbe727db7U,
  0xbea218dabe8baa97U, 0xbe2481c8be968df1U, 0xbb64d813be855281U, 0xbe33db29bed3852bU,
  0xbe02a699bd95b96dU, 0xbcf0ac1ebe274c01U, 0x3e1d6cbcbe6366b9U, 0xbd14a36a3de295ddU,
  0x3e20d3f33d687f82U, 0xbdfeac223e0d577aU, 0x3e1273b23ddecf8bU, 0xbe211a8cbd518aeaU,
  0xbec6f17f3e6f5d77U, 0x3ea78f123ca5b024U, 0x3d83b1323e60a9d1U, 0x3ef3d8d03ea24554U,
  0x3dc07a703e836276U, 0x3ec14b41be8d8b4aU, 0xbe7e44393cc61b26U, 0x3e3c0c733ebbb87fU,
  0x3ea4bc963e977a5eU, 0xbd76a474bb941289U, 0x3d83b4313e589715U, 0xbea432d43e000a42U,
  0x3dbf94943e90d087U, 0x3ecf28a43d6a943dU, 0x3dcda8aabd91228aU, 0x3e853571baa142eaU,
  0xbdab6b1c3dadb881U, 0x3bfbdf8fbd499579U, 0x3e905fadbcebf56dU, 0xbe1fc850bdc59229U,
  0x3ed406d33e7111ebU, 0x3d2ef6663d0b00b9U, 0x3e3584cd3e4145eeU, 0x3e848ccebddf6f33U,
  0xbdb63160bdda7c84U, 0xbd95acd3bcdbaec9U, 0xbcd85656bee212f1U, 0xbd97d2333da13553U,
  0xbed5fd4a3e43408dU, 0x3ca391edbd050681U, 0x3ee60f483e2a2011U, 0xbd805b0b3dbd57bfU,
  0xbf08bb8cbea11aa1U, 0x3ea2a6d4be42f31bU, 0xbd7e42efbebe4895U, 0x3e4e74b33a0d445fU,
  0x3ebe31d4be043f94U, 0xbf287345bead9114U, 0xbd6df3a1bd209233U, 0x3e17bbd1be9b3a0bU,
  0xbe5c37863d97cf54U, 0xbe9484e0be08c465U, 0xbf488e523db2b112U, 0xbe1c7800be29c7caU,
  0xbef9657cbdd35218U, 0xbeae55083cbda9e8U, 0x3e8efda3bd82c9a5U, 0xbdee04e43eaf5b4dU,
  0x3e1fd8903ea80a0eU, 0x3e471be53ec2ab07U, 0xbd6387b7bbf6a1c1U, 0x3e0ecdbf3b8605e3U,
  0x3c8d6a20bd89183cU, 0xbcd537453d825497U, 0xbd9e7daa3e3a2205U, 0x3e0a81983e387fe3U,
  0x3d6af5e2be802a11U, 0xbe814685be48a7aeU, 0xbc6d73483cea3b80U, 0xbe8ec6c5bd69aad5U,
  0x3de19c99beeac76fU, 0xbeaa803cbdb06223U, 0xbeb02edebdc372a9U, 0xbdf99d60be91ffcbU,
  0xbe18acaebeacfc9bU, 0xbe18aabdbe0ff140U, 0xbe39db32bd87d783U, 0x3c6c6bddbd354214U,
  0x3df71d0a3e4774bfU, 0xbef9560b3e26025fU, 0x3ea65bd83e3b0f4dU, 0x3e283ab8be013cc0U,
  0xbea2b5f4bd3efc4eU, 0xbe44d8d33e740e85U, 0x3dbfa6123e1b95a0U, 0xbe3101983cd1934dU,
  0x3dcb47b5be6b667eU, 0xbeb19e6fbd502e62U, 0x3e09dd2c3df9bd18U, 0xbdc9a026bea86f30U,
  0xbe861a3b3ea69761U, 0x3d9578bbbd61ff2aU, 0xbc09c2253e67cdceU, 0x3e88f6dfbe6ec714U,
  0xbe470d963ddcfab6U, 0xbca7c6683ec64f66U, 0xbcbdfd26beb0ca4cU, 0xbe8a45493ddbcf09U,
  0xbe9255783db7f88dU, 0xbeb95018be563761U, 0x3e158811bdbf1014U, 0xbe8e460bbee2717eU,
  0xbf00dbf8be9c962bU, 0xbd95fe44bea699d7U, 0xbe89bf873d2cd7d8U, 0xbe68ce06be666a76U,
  0x3da85c25bd53d43fU, 0x3e02611f3b92b03eU, 0x3e79cb8ebeb3848cU, 0x3ea10d2c3cefe001U,
  0x3e2255883db1422cU, 0x3db652bf3e2f0b1bU, 0x3e82fa44be72dc5cU, 0x3e3594ff3ec7026dU,
  0x3e95885b3e5ffbccU, 0xbdcfb0473e861ff4U, 0xbe62b0e0bea26717U, 0xbee81f153c702bcfU,
  0xbc6db74dbe2e5ffcU, 0xbb5fa248be43a2daU, 0xbe2f5aa9bf0e218fU, 0xbde77f6dbc88c015U,
  0x3d7937463c21230dU, 0xbe8255b0be3323e0U, 0x3ea8e8eebe8ff91aU, 0x3ebf49b23e1dc8edU,
  0xbe424a08be90baffU, 0xbeab4e01be3377a5U, 0x3e7cde60be9576f5U, 0xbe56e9b63e97ffa8U,
  0xbe9dcdde3c95862dU, 0x3ea17425be75d959U, 0x3e0ea9b3bd8ed883U, 0xbc2719e8beec2054U,
  0xbe8d64bdbe24593aU, 0x3d69c785be29bdf1U, 0xbef0c6bdbef851e3U, 0xbe26af48bd3072bfU,
  0xbe22375bbeb060cdU, 0xbe1950f6bf33f14cU, 0x3e725b043e53e515U, 0x3e8d25a5becc0040U,
  0xbd9ab4c6be0b0000U, 0x3e22bcb53e4625ddU, 0xbcc1e3eabe51d0fdU, 0xbe8a2744bec144a1U,
  0x3e8227653d08c9b3U, 0x3d46423c3e651f2cU, 0x3e3bb15d3e988deaU, 0x3dd9093a3d662127U,
  0xbd9b242c3ce80de4U, 0x3dca36eebcd629a4U, 0xbebef8abbc4f13baU, 0xbd215d063e46cd75U,
  0xbea52492beb77c46U, 0x3b6ee5b6be7b8541U, 0xbe30185e3d23274dU, 0x3d0321603e191580U,
  0x3d73e9c23d9d3328U, 0x3e6b7b973e200c09U, 0xbeaf05dabe0dbe71U, 0x3d6594e5bf353e7cU,
  0xbeb3cc3b3e9ff7a6U, 0x3ea6211a3e0383f5U, 0x3da6a8cb3d2e6f3bU, 0x3ea27fa33e2c559eU,
  0x3df665fdbe276626U, 0xbcb1c214bdc816d1U, 0x3efa25cdbe4d118dU, 0xbeacfcc1be369375U,
  0x3e903fca3df2314bU, 0x3e704ce03e0ae09eU, 0xbe7ac8fdbd92b34cU, 0xbd838e023e807e22U,
  0x3eb1b19a3c6b45a9U, 0xbe0591ce3e943ba3U, 0xbeb05255be8f727aU, 0xbdc5a88e3d91b3e4U,
  0xbea3860f3e550d75U, 0x3d906f723d6fa015U, 0x3ebac21a3e9a7ff5U, 0xbec9d3a6bd919032U,
  0x3d5ce7593e40c0d1U, 0x3ddc46f23dc8e150U, 0xbe8b21973e73ad61U, 0xbe9084dcbdc89e56U,
  0xbe39a015bbaa3007U, 0xbec6d6ff3db06a25U, 0x3df3321e3cd5c911U, 0x3ecc744b3de11ae3U,
  0x3e9e14a7bdbda109U, 0xbf3e5af83e19b5afU, 0xbed0b010be82a01fU, 0x3dba43033e4741c8U,
  0xbea25b3b3df41e4dU, 0xbe91262bbc3d9595U, 0xbc781090bf116913U, 0xbf2a4af7bf0ba058U,
  0xbe0e60f9be38f302U, 0x3d9e397bbe30e359U, 0x3e943ecdbdc19ca8U, 0xbeead6bbbe85a96dU,
  0x3ddf8b7f3dd42c81U, 0x3ec6e2db3d86f564U, 0xbeb8e265bd901528U, 0xbc80cf223e8b193dU,
  0x3d8af24abeba41b3U, 0x3d161fb9bdb8f82fU, 0x3ea8a3823ec8efd2U, 0x3e926815be26d372U,
  0xbcd4cc65bd8c728aU, 0x3e6219cd3e5bd78eU, 0xbde730833ee1ccb6U, 0x3e6ae6c73d0b82feU,
  0xbeb0e53e3d6e2299U, 0x3df18e8f3ea9e188U, 0xbeb5c7463dfbf136U, 0xbd1ed6ebbeb551b6U,
  0x3e2de88d3c15b45fU, 0xbdec0dc4bdd72240U, 0x3f02fd4cbe843129U, 0xbca22d2d3e11b7fbU,
  0x3e610fa83d094f66U, 0xbe0cd1f4be941d4fU, 0xbe397c46be75f14eU, 0xbec49bc83da4c566U,
  0xbe5ea439bf175e0cU, 0x3e80951bbdc76732U, 0xbdcd1a69be84926aU, 0x3c18e9bcbeaefb76U,
  0xbd27a4bbbe9fae59U, 0xbe6ccf963e08c393U, 0xbe7762fabe044522U, 0x3e8df1d3be41d9ddU,
  0xbe22413e3cd00ecbU, 0x3d8e6f10beded791U, 0xbe20abdd3e7481fcU, 0x3db367a5beb0e2a5U,
  0xbe85d531be8f920dU, 0x3db18839bed2f8ceU, 0xbe5798debe3165eeU, 0x3d3196553cb3af63U,
  0x3e49af8abe0bb0aeU, 0x3dfccaf0be84cce8U, 0xbda1edfdbe2f2cdeU, 0x3df659eabf1f2c84U,
  0xbe00e67e3e4700caU, 0x3d79133dbc8c497cU, 0xbc4605fbbdedfd68U, 0x3d0761d83d3eb1b6U,
  0xbddcedb5bed66373U, 0xbe8bf8b9bd5cf082U, 0x3d8dccaf3ea7240bU, 0xbd708a70be579002U,
  0x3e16d4593df4d4d3U, 0x3e1da80a3e2ed4ecU, 0x3ec34479bd3b08b4U, 0xbde4ad77bc06bda2U,
  0xbe3ddaa0be74300aU, 0x3e3b2e1cbed9bd18U, 0xbddbe1313d3d1d80U, 0x3e62dffdbeb149a9U,
  0xbebd88b6be377b28U, 0x3e769a04bd896385U, 0x3e3d283bbd99664fU, 0x3d3be763be420251U,
  0x3e0da3813d2db640U, 0x3e169e03bde4988aU, 0x3d696f98bddf0dadU, 0xbe824d913e902486U,
  0xbe3768ef3daaa46aU, 0x3bbb39ddbee08a24U, 0xbf2223bebe2d3165U, 0xbdc283e63e804301U,
  0x3e300336bddc2d7cU, 0x3d290ca7bdbcd203U, 0xbda1e262bd94409bU, 0xbe0650363d9a4665U,
  0x3ec69e19be40a444U, 0xbe178a883eba98f2U, 0xbda33b72bec194a1U, 0x3e2621d2becf3e50U,
  0xbe393c08be919109U, 0xbe7157893db68246U, 0x3e8394df3e736d89U, 0x3ec392f8be106452U,
  0xbe9d4bd2bdce7ca0U, 0xbf06cc62bcf265adU, 0x3ef61ae43dd97ef6U, 0xbed93b77bdd024c4U,
  0xbef4b1ee3deca18dU, 0xbe5b0fdabea1ca30U, 0xbe4fbdbd3daf8fc5U, 0xba3d5ec83d960ba9U,
  0x3dee8745be3c00e8U, 0xbb7da25abd1b61bfU, 0xbd5b3b03bee6afa8U, 0x3d65effbbdfb073aU,
  0xbcdde33ebec2f2c5U, 0xbe5c531bbe9135bbU, 0xbd131fe5bf15a148U, 0x3d9e077fbeaf8069U,
  0xbd9591febedfec16U, 0x3ebf0bd7be225e2bU, 0xbe268a25bf0f12fcU, 0x3d30d04abf1cc5b1U,
  0xbee9f8c13dfb12eaU, 0x3dc7c8913c87cb43U, 0x3e1cf98e3e65dfe8U, 0x3d16ab6d3de4ae6aU,
  0xbe0576383d0807b0U, 0x3ebaa0263d8d7341U, 0x3daf2f8dbecabd16U, 0xbdd7fbda3bae7325U,
  0xbdcc066abe8460edU, 0xbe6a0b52be36204bU, 0xbe4b284fbea6c626U, 0xbeb7708cbeaae7ceU,
  0x3dba571dbf0a765cU, 0xbf3ff29cbea6c071U, 0x3db536eabe0b5319U, 0xbf256094bf014d52U,
  0xbe4b2e06be9ed27aU, 0xbdb6d6543e36a11dU, 0xbeadfb1abe8033cfU, 0x3fb1af43be94a0b5U,
  0x3fbd234e3fa8be2dU, 0x405821b93fa9a306U, 0x3fbbfee23fc166b9U, 0x3fae2db83ffbbcfaU,
  0x3fe98fcf40156edcU, 0x3fe88dd640665f64U, 0x3fc1c0923fc0a09eU, 0x3fb9cc4e400091dcU,
  0x40107bfa3fdc02ffU, 0xbe328aa340162318U, 0xbe3b67debe9fd1a4U, 0xbe28be72be677036U,
  0xbea569e2bf16a796U, 0xbea91774be8fec85U, 0xbf274760be8c6b78U, 0xbeecccf8be40cde7U,
  0xbec61204be942023U, 0xbf7fdca2bf708878U, 0xbe1e5eecbebcaa5fU, 0x3dd37661befff9f6U,
  0xbe0cfb4339f95b21U, 0x3deb4fe63c66b769U, 0x3e1df9d63e0afb47U, 0x3deadc153e00250eU,
  0x3e28a2c8bcb84d09U, 0x3e6de82d3b0a210fU, 0xbe2637813e69b140U, 0x3e044730be166483U,
  0xbb1dabc93de23255U, 0x3e1207e2bedfada7U, 0xbe89ca263e23be98U, 0xbd83eb9dbe9bb64fU,
  0x3d5b8a803df11801U, 0x3da4b3e43e721ecbU, 0x3e42eef6be046e1bU, 0xbb9378f33e493bacU,
  0xbbe0baef3ef69935U, 0x3dbee556bdc51387U, 0x3ea62eabbc9e6401U, 0xbe2a00793eac173bU,
  0xbdec4be23b871534U, 0xbec2b888be71c75eU, 0x3dcce2d93e85f153U, 0xbed3e93ebe652b5dU,
  0xbe9dbea53e0ceecbU, 0xbe5d53933eb94133U, 0x3cf445153dd446f3U, 0x3d6050e3bdc7b2eaU,
  0xbcfdf021bdd4eb20U, 0xbe716d053e5d8c25U, 0xbdde80e03da549e4U, 0xbedc8729bdd5be0bU,
  0xbe7f79ee3e21aa59U, 0x3e75732dbe2aed1eU, 0x3e1df9afbe9d90e8U, 0xbd57ebe1bc9ed4fbU,
  0x3e5ace67bd756c62U, 0x3e0c92be3e28ba76U, 0x3ddc9260be242498U, 0x3e483c293e5dffd1U,
  0xbd52eb453e061dedU, 0x3e2ec0bd3cf84fb4U, 0x3e857a7c3e3c5d14U, 0x3e6f5ea8bdcb2d92U,
  0x3c12bc7ebc89a767U, 0x3cf7d544bc9078ffU, 0x3eb907e1bd83ad3eU, 0x3e4c8a3b3c00486cU,
  0x3d1aa56abdf7320dU, 0xbe486d0d3d715bebU, 0xbdffc0ecbd471d4cU, 0xbd8a43673e2c5a92U,
  0xbe038b933e4c7a65U, 0xbe17117cbe132482U, 0x3c9fe4853c12e4d9U, 0x3e7c39e23e3b7a48U,
  0x3e97a2163da2a0afU, 0x3c09aa26bdfcaeebU, 0x3ca07ab33e525473U, 0xbdf463b13e3f28d5U,
  0x3eadda4abe004d3cU, 0x3db49d763daebfadU, 0xbbb0cc383e5a3daaU, 0x3ecb3c66bc8f2647U,
  0xbdf53a193e885ddfU, 0x3e3a1191bec28343U, 0xbe8d73e8bdda55a1U, 0xbe086b403d699d82U,
  0x3db23b06bead6745U, 0xbed975ce3e53b8caU, 0xbe8dea93be749065U, 0xbecb137d3e9e2861U,
  0xbe530e4e3daf6205U, 0x3eadc550be4da850U, 0x3dd9f453bed3a7c3U, 0xbed748903e0d792aU,
  0x3e3e49813db55cceU, 0x3e1a48f83e8414faU, 0xbef693133d24080aU, 0xbe6e2d5e3e2c76f8U,
  0xbcdc22e2bed3670bU, 0x3d74bc1abe35f35aU, 0x3bc6f670bf139d77U, 0xbe96210fbe74f27bU,
  0x3e9a6bbb3e9cdddcU, 0xbebd7f54bd86208eU, 0xbd8a09633d17e61dU, 0xbea55a4c3cb1f9cdU,
  0xbd629a4bbef9c00fU, 0x3e9126bd3e218f2cU, 0x3ddb9cf53b3d3e53U, 0xbd1a0c94be31d56eU,
  0x3d229ca2be2f5f92U, 0xbe9e90413b93daf1U, 0xbe98b63b3da94d19U, 0xbf661a103c4d9f14U,
  0x3dc4725c3ea58af0U, 0xbe890681bf000bbfU, 0x3e22cb9abe04af08U, 0xbe0116483c36dea4U,
  0xbd321e3fbe878cfeU, 0x3ed06748bebf8ce4U, 0x3e4f05e7bddf45feU, 0xbe79b655bd8839d4U,
  0xbd9b56b1bde5e2cdU, 0xbe0b3b293e4fffffU, 0xbe344c4e3e11677cU, 0xbec38f75be8ddd91U,
  0xbe00af073d9016e3U, 0xbe11c22ebda04233U, 0xbf192dfdbea0f80cU, 0xbda1a92ebf0a8478U,
  0x3e1d381ebef9c91bU, 0xbeadb707be0c4e64U, 0x3d96eaeebf280af4U, 0xbeab6f5e3df4a644U,
  0xbeb16bc7beb487a3U, 0x3c6e9a773df12a23U, 0xbe0be72d3e0d0569U, 0xbe08f120bdfa2470U,
  0xbeffb0633d9c3d99U, 0xbf743fc7bd25b077U, 0x3c810f3e3dd39fc7U, 0xbe35fc2ebef0b8d2U,
  0xbd48aba4be9a63a7U, 0xbcb4d500ba622351U, 0xbe8de911beb8eed5U, 0x3ec36f663ec40819U,
  0xbe11975fbe5c453fU, 0xbe9421403ec04f48U, 0x3dc294633d9f3b16U, 0xbc7a0e003bfa3e10U,
  0xbeaf868dbe690dcaU, 0xbe26f2c7bf18d327U, 0x3e32abc1bcbc3b41U, 0xbe5ff4a33eb42792U,
  0x3da03134be305172U, 0x3d8974693e50d4c3U, 0xbe3aa04ebdf9dc69U, 0x3e87b70b3ee84ebaU,
  0xba73efedbc26ae92U, 0xbd08b7943ae282b8U, 0xbed5d52ebdc8550cU, 0xbca27c073f131a9cU,
  0xbe10cd933de7a6dcU, 0xbd35c5b1be061225U, 0x3d540e463e9affa5U, 0xbe63ab68bf1f1a5aU,
  0xbd0503ba3d431642U, 0xbf02b4ae3e3fddbdU, 0xbe515b15bd647404U, 0xbf4d79493d62662eU,
  0x3d4502a6be4a8701U, 0xbec621acbd619cc1U, 0x3ea9e00abf26df29U, 0xbecef9acbe37b33cU,
  0xbd55cf263e7a8bc4U, 0xbe13479c3d52daeaU, 0xbe220c52bd3e461eU, 0xbcc04222bd30cadeU,
  0xbebd0b2fbe590673U, 0xba8f727e3db1af51U, 0x3e7072b23e359f46U, 0x3e9f5c7dbdc19680U,
  0xbd0df06dbef99232U, 0x3deadc61bd9805a5U, 0xbd42cfbabdfea54cU, 0xbd250bb93eb6c832U,
  0xbd5574213e3a8dffU, 0xbe8b4a77bdc697acU, 0xbe96aef4bef19eadU, 0xbd3de873be35c0a0U,
  0xbe11bad3bd3da975U, 0xbdbdf946be2d38adU, 0x3eb89d48be428a9fU, 0xbdc685bdbe3e621eU,
  0xbdc37034bed07ed9U, 0x3e9ecfa43e11f071U, 0xbe410e15bda4397aU, 0xbd7194643e5f7b43U,
  0x3e0488783e84c798U, 0x3cae8d663db2e571U, 0xbed8f4a13c81aa85U, 0x3c8d78c0bf005837U,
  0x3e64f59b3e201090U, 0x3e6e7067be26950eU, 0xbe34b80abe922c87U, 0xbe2d7d04bcea1911U,
  0x3e99260c3d8bf7f1U, 0xbe05e04e3d5c332fU, 0xbe84a5323d06fd0bU, 0xbed9abff3d5ab255U,
  0xbf3554b2be36d2fcU, 0xbe3143ef3e30bc3cU, 0x3eb37d82bf30d340U, 0xbe0479b6bdf982e9U,
  0x3ddd531e3d570205U, 0xbe3d36f4bee836afU, 0x3ec4ae603e2a65c3U, 0xbe432fbabe5bccc3U,
  0x3d7b18393d6ab922U, 0x3d981cf1bd8df596U, 0x3e7dcaff3e93c735U, 0xbde2c39d3d5f7c15U,
  0x3e989dcd3da052a7U, 0x3e8794a7bdd15144U, 0xbe4aa8de3e9a6dedU, 0x3e4fc9a8bf0353e6U,
  0xbefc9b60bdc31f4cU, 0x3d8ec37a3e00d8fbU, 0xbe4813813d8ba95bU, 0x3ddeed3f3dc3896dU,
  0x3da36cde3e2278b9U, 0xbde80c8ebd84ab03U, 0x3e25e24fbec504ddU, 0x3d3bdeecbe21e35cU,
  0x3e0e5da83ddcdb2eU, 0xbbe285763e0ef3ccU, 0x3e3867efbd618bc4U, 0xbdc7b9fbbe055fdfU,
  0xbe7fb25cbe86c52fU, 0x3dbc0a723de41a6eU, 0x3e3b9fe13c00163dU, 0x3e92c895be320c1eU,
  0x3e38e726bd671c08U, 0xbd4a45653e30d7abU, 0xbd9c594a3e627f4eU, 0x3e97d260bdb28072U,
  0xbdc1000b3b46a711U, 0x3e1cecdc3e42fc27U, 0xbee355d13e7ce2daU, 0x3d2e05d4bea28ee3U,
  0xbde8acb5be0db728U, 0xbdb5a0ce3e47ad0eU, 0xbecc26d4be9e4c7aU, 0x3d0ab45ebe8acdb4U,
  0xbe4e3d0ebe087fc3U, 0xbeaa11963e629e0aU, 0xbedddb5e3eca033dU, 0x3e135fcb3dec33f1U,
  0xbe027a503dda61bbU, 0xbe71b58d3e80884eU, 0x3ec955c03e6d7f2bU, 0xbc0bcccb3e7d826eU,
  0xbe3b5f68bee98082U, 0x3e70c704be837c97U, 0x3d00e0603d84d4b7U, 0x3d4ba6763ea654a1U,
  0xbd8c0cfa3e0c303cU, 0xbd04bb99bebc3ab0U, 0xbc7ecbff3d0fe1ebU, 0xbf2371593d924165U,
  0x3e27dbc73dfc536bU, 0xbcfb0911bd8226aeU, 0xbdfe3ab9bef60877U, 0x3d6aa81abecf4836U,
  0xbea7dab4bcce4333U, 0x3db442eb3d9b2afaU, 0xbdc53cf83dfeba22U, 0xbe6c3f18bd70a560U,
  0x3d1c9be4be84a420U, 0xbe69422cbf0fe7e3U, 0x3e60018fbdd0d071U, 0xbd8876a33e8ce267U,
  0x3e640569bd71ef07U, 0xbe61242bbd82edb9U, 0xbd4d62ecbcb0ec26U, 0xbeb3f373be3b4d35U,
  0xbe7700a83e5a2879U, 0xbf0c53d13e89bb91U, 0xbe42e8e8bf1abd62U, 0xbf0f4405bf17b312U,
  0x3e6234cbbdb78351U, 0xbe6c5367be68d61cU, 0x3f011704be8b585bU, 0xbec9436bbe3a3dfdU,
  0xbe8eaa4abe0e72eaU, 0xbeda4e123e030fbcU, 0xbeb54e5abe4b910cU, 0x3c34b0583e3677aeU,
  0xbe14b882be45b386U, 0x3c523fe8bf03a0a1U, 0xbe3780e8beb82345U, 0x3cff848c3c607bf8U,
  0xbea9e1cbbe49910cU, 0xbd82c18cbeae2bd9U, 0xbf244070bebf71c4U, 0x3de39cf5beaa006fU,
  0xbf1de9903da1f20bU, 0x3d6faec6be764903U, 0x3e69fcb43e187dd2U, 0x3e26715dbdf63d62U,
  0x3dff5d54be0092d7U, 0x3e4fb8de3e0c7ce1U, 0x3eb8f1333e801365U, 0x3d58c9e4bbaee374U,
  0xbd98f38b3c80d5acU, 0xbd99f1c0bedfb9eaU, 0x3d867bc63e1246eeU, 0x3d4e0f7d3e9d2e3bU,
  0x3d927dd23e51049fU, 0xbde41610bd62a759U, 0xbdd246183d6b105cU, 0xbe1fb59a3e67acd3U,
  0x3eb230bfbefc2ffeU, 0xbc9d22c43e70b643U, 0xbe4ac5b83d9c4c75U, 0xbe6213fabf045a3bU,
  0x3e9d71893e9e3f79U, 0xbe4470ca3cb5589cU, 0xbf0b2805bec75ec3U, 0xbe8576c1bf0616c9U,
  0xbe92e332bdc4e9e1U, 0xbf2f671dbd62a6adU, 0xbeaabf8fbe645b83U, 0xbe0a80d0bc0ad64cU,
  0xbe9645fcbe17bcb3U, 0xbe403af5bada3250U, 0xbd981dbe3e0571f4U, 0x3e880c13bed419b5U,
  0xbdc7f6adbea96504U, 0x3dc2b371be089553U, 0xbe153e32be3b554fU, 0xbe9022193e2f8ea6U,
  0xbe9afccd3e933367U, 0xbe39abf23d985b1dU, 0xbe62a6ba3da17c4dU, 0xbdebccc8befb1611U,
  0x3e88636cbe8ee54cU, 0xbe3ac48e3e99cffaU, 0x3dc0bb4abe022cd0U, 0x3e8933efbec83373U,
  0x3d60ad7cbd9ca87fU, 0xbdf55efd3d3e2830U, 0xbebfda0e3cb3668cU, 0xbe6144593e1165cfU,
  0xbe837f17be97d010U, 0x3d87d5d0bd980980U, 0xbecbfe06bcaf67fbU, 0xbe134095bd5a324cU,
  0xbcfc1aae3e15d7aaU, 0xbe7edf72bd963b8eU, 0xbecbeca2bed8a460U, 0xbe5472d6be1fdb79U,
  0x3e8dee0cbeb84b47U, 0x3d8f4612bec23eeaU, 0x3c30453bbece3287U, 0xbdf806443e73a693U,
  0xbeb4e2b43ec3cd90U, 0xbec19ebd3bf42d86U, 0xbe3d83fcbe60d52fU, 0xbe480e82bdadd959U,
  0xbece0236bbb244aaU, 0xbe55f28d3e1a6ebfU, 0x3e3fa21ebc805105U, 0xbe0a5c7e3c8a2b27U,
  0xbe217227be580f6cU, 0x3cb1b1ceba6d059fU, 0xbd14526ebc8eb999U, 0xbec0d3e93de5eb88U,
  0xbe9b792ebf0feed2U, 0xbe77367abce87810U, 0xbdcbe4273cd7fe42U, 0x3d906783be1b1facU,
  0xbd029e18bd61fa99U, 0x3d20e3a6bda52e31U, 0xbec62f8cbeb7d5deU, 0x3ea5ea2e3e1b8715U,
  0xbec167d9be94e64cU, 0x3c25b6533ed0db9aU, 0x3e0a56cabd149330U, 0x3e6553a93dcc38c5U,
  0x3d0cc9f0be0a9440U, 0xbe401868be608c69U, 0xbe02750c3e6edb6eU, 0x3d9ff5853e88797dU,
  0xbde928babea89692U, 0xbe14df533eae7bb8U, 0xbf176fa73e99e228U, 0x3d38c78c3e8655f4U,
  0xbee9d65c3ccbb4bdU, 0xbe1da2323e267985U, 0xbef9d7e83d9427b5U, 0x3dd9fee73d546569U,
  0xbe1c307dbf087ae8U, 0xbd10bb9abdb2c25fU, 0x3e4aede03e3f3bd0U, 0x3e82b0493e1915d2U,
  0x3e2991503e0a63deU, 0xbe7403a23c6b3541U, 0xbe0187d73e439befU, 0xbe597d06bdb6d475U,
  0xbd4f7a06beb2ff6fU, 0xbc441803be0021a8U, 0x3eb2997abee196d0U, 0xbd42d35fbd39fed3U,
  0x3e90c3f3bf27afa1U, 0x3e740a8c3dc21492U, 0xbe9c50bfbe97da28U, 0xbd441f12bcee070aU,
  0xbe56290c3e52353dU, 0xbdfae1453d8d8e9bU, 0xbe3d3e3abc9e85b9U, 0x3e9f9107be808816U,
  0xbdcc79643e0477c5U, 0x3e4608c13ded4e43U, 0x3e42f4c2bda09894U, 0xbd6612763ec349baU,
  0x3eddbedbbe0580e8U, 0xbdcddfa6bd869af7U, 0x3e88a6003deeff22U, 0x3e54d7eabea3e09aU,
  0xbf2ead7cbd2d0326U, 0x3d167c67bcf731c8U, 0x3e5117963e004fcaU, 0xbdae6e16be3288c3U,
  0x3dc11aa0be258887U, 0x3e5d94f4bea798d3U, 0xbd70c6783d409133U, 0xbea910aebdc3dfb2U,
  0x3e3e2b1e3dce64c0U, 0x3e4bcd3abe6528f9U, 0xbe8df803be1314f7U, 0x3d815b873e416101U,
  0x3b78da05bea6f65dU, 0x3d1203ab3ea9abaeU, 0x3d8a9da73e9d46d0U, 0xbd3d734abe59f03bU,
  0xbe045944be3aee95U, 0xbf466857bd9adeeaU, 0xbd807479bdb1c6a7U, 0xbe3e0fd9bca93687U,
  0x3c8f28acbe8c233bU, 0x3e831d703e048440U, 0xbdc687f63e9b6380U, 0xbde04c57bd33567eU,
  0xbb2b32e73dd158a9U, 0xbd08bb0a3dbbebe7U, 0x3e0a10dbbf0737ccU, 0x3ddfa5a43da1aa7aU,
  0xbf02d5b13c3c3ca7U, 0xbe1e923ebed2960cU, 0xbed23b923df3a4e1U, 0x3ecf6baa3dfd8484U,
  0xbe006b0abf29de65U, 0x3ce7f63abe489ee9U, 0xbe74f590bea268deU, 0xbe616453bea4db15U,
  0xbc6963b4bf001438U, 0xbe7d262bbe99fd91U, 0xbf27baadbe8f27b0U, 0xbf4af42dbda427dcU,
  0x3e15c330be416dbdU, 0xbc684e82bdb903bdU, 0xbe532ababe855ec4U, 0xbeb76bcdbe50e888U,
  0xbf25f8913e260a37U, 0x3e675c043e289b31U, 0xbeb5ca31bd7d329eU, 0xbd078a66be8e2016U,
  0x3d80865b3e445990U, 0x3dce468e3df247f9U, 0xbdd1f9babe2e69ebU, 0x3d5925ecbe2c2234U,
  0x3dc4965c3ddfc7c6U, 0x3ea39334be6f9d4cU, 0x3cd0636cbe677962U, 0x3e1cc67e3e0da6a4U,
  0xbd521b693e568264U, 0x3dae4fe63d3e89a5U, 0xbd98991b3dbd6f6fU, 0xbdcf410cbecf9934U,
  0x3d8626573e24ac68U, 0xbd8d6ded3e403a7eU, 0xbe524d9f3db4b459U, 0xbc186b273b7e98aaU,
  0xbefa92f9bd0c0d53U, 0xbe911f0fbe7db249U, 0x3e03a4393e8f4cf2U, 0x3ca46349be2e30e6U,
  0x3e08f416be072189U, 0x3ed6e9c0bdb96d1dU, 0xbd152829bd8ae1baU, 0x3e968db3be44f3f7U,
  0xbe91bea73e3b1d01U, 0x3c6a32debdf4fe47U, 0x3da457c43ef613daU, 0xbebb0766be46fe64U,
  0x3d9912213e14c31aU, 0x3d8f756a3dae17dcU, 0xbe83d46ebe2f1b70U, 0x3e13b290bd3ddfa4U,
  0xbdbc4e1dbe3174feU, 0x3d3edddf3dee89a5U, 0xbe61c6e53d93b4e3U, 0xbe5871163ebdf263U,
  0xbe1c3af33e691293U, 0xbe44ae14beac2673U, 0x3dad300dbe4b4816U, 0xbdb54bf13d3943ffU,
  0xbd02a367be5e5923U, 0x3d343eb0beb5a9caU, 0x3e362fcdbdf5d4b1U, 0xbd91d9ea3d84a004U,
  0x3bc697d4bea1fc0fU, 0xbe2d9fbc3e39b6f3U, 0xbe8c55debf0329f1U, 0xbf0236873d3aee9dU,
  0xbe582ede3e6c970dU, 0xbb6cf80bbe3c94a1U, 0xbe3c551ebdb907b2U, 0xbe5ef130beeeafaeU,
  0x3ce2acbfbe60f8d4U, 0x3d032dad3d984ffdU, 0xbeb05936be0796bdU, 0xbe1e3ea83e261a7fU,
  0xbe2e59c1beae4109U, 0x3e0e6ac43c2164ddU, 0xbde27ea23ec72c5dU, 0x3d5fa8adbd9b55edU,
  0xbdea5e433ea42affU, 0xbcf4f7b7be981895U, 0xbdff332abe086f1eU, 0xbe8af0d23e21e462U,
  0x3e832aa1be38daa0U, 0xbddeb7d0be990c5bU, 0xbe7d9cc2be67aa91U, 0xbe7bf5c5be69a63cU,
  0x3e5b5bd83e3a36acU, 0xbe13d0be3ddbd3caU, 0x3e2374dcbcf987fbU, 0x3e841c0a3cd00ea0U,
  0xbeafb70dbd7d67f8U, 0x3db2f62dbd303064U, 0xbe0f522a3e634b4fU, 0x3d8146903ebc02f5U,
  0x3dd8f550bd468b71U, 0xbeddf56bbe957ca6U, 0x3e1d58b2be7ff5f4U, 0xbea4e0a23f0583ccU,
  0xbda0225abe988ec3U, 0xbea33aaf3d5a2d6dU, 0xbd24e404be7b1996U, 0x3d8da10e3ecb4deaU,
  0xbec7c4a7be929771U, 0xbe7efca7bd8cd86fU, 0xbe0f2819bd506d1dU, 0x3e480b333de2eb4aU,
  0xbea38736be047cf1U, 0xbe6a0ad83c3f9ce5U, 0x3de33d3a3e425abcU, 0x3c71857bbe305d5cU,
  0xbec09638bdedd8e5U, 0xbdf5ea92be7c1618U, 0x3ef55cb23d18425cU, 0x3db246afbeed97ffU,
  0xbee46634be94a4fdU, 0xbdaff6c23e52ea0aU, 0x3d2522f73e0698a1U, 0xbdb8fb5d3e640828U,
  0x3dec5f39bde45b23U, 0xbc1bd25b3e5d30f8U, 0xbf20e7cebe13cddbU, 0xbd9571c13d921abdU,
  0x3d995f7dbdb711c2U, 0x3a6085d3bce64629U, 0x3e9b02643e5fee75U, 0x3dbf337ebe15f149U,
  0xbca853fabe9873a8U, 0xbf06811f3e442cdfU, 0x3d467b873d64b990U, 0xbebc82e8be87d65bU,
  0xbe4756993d4bd91eU, 0xbdabc3d5bc3555fcU, 0x3e646f48beda215eU, 0x3d81757fbebe678cU,
  0xbe0a9099beae7166U, 0xbd9ee20c3b9c6fd1U, 0xbdd2dc45be740ec3U, 0xbf4cd1cabdc358afU,
  0xbeda5040beecdebfU, 0xbec04b943e1660ebU, 0xbd3df593bda6e1e7U, 0xbd5c24a0bf02ac07U,
  0xbe95e5d4be9f6b35U, 0xbe69af9cbe1d9ff5U, 0x3a9897f7bee32d07U, 0x3e5e0bf73ebdf3fdU,
  0xbf03426dbd39a27aU, 0xbe1f4a30be80ba65U, 0x3e6ec042bc8fa3c4U, 0xbd9916a63e64fb04U,
  0xbea816153e1f56ebU, 0x3ddd3889be84ef0dU, 0x3ddff2483e0e57caU, 0x3e92f483bdaaba72U,
  0x3e2c5b3bbec802a5U, 0x3e7068013e515ffdU, 0xbf4dae123c9ee3fcU, 0xbe061e623e462372U,
  0xbe53b27fbdd9579cU, 0x3dd717703e0bcdadU, 0x3d1ccc10be2508a8U, 0xbde21cb23e8b311aU,
  0xbe5e631c3b6304a6U, 0xbeff00573ec004dfU, 0x3e8717a33eba1e7bU, 0xbd09f4d8be90286bU,
  0xbefd05d53ea6e6f6U, 0xbe9f99d53e4d6a13U, 0x3d7c16bdbe8ae768U, 0x3dc51783be0ca989U,
  0x3e6b67f7be898c7eU, 0xbd7d8fa43db04523U, 0xbe58fe463d610512U, 0xbdaca9a03e9d4669U,
  0xbe757bcfbd651f0bU, 0xbd93d9043d4dd8beU, 0xbe2bb9873cf8d076U, 0x3e7341bf3d9d6870U,
  0xbe9a92d83ccca598U, 0x3c9a393fbee7da67U, 0xbdd06ccabdb00377U, 0x3e79cebc3da692a2U,
  0xbead5192be834b9eU, 0xbe74bf78bdb4cdbcU, 0x3d58b500be42a896U, 0xbe56f814be8c1c24U,
  0xbe39377f3de81910U, 0xbd6ffeb63eeb391bU, 0xbeedd034be4f68d3U, 0xbdb824edbef2f64eU,
  0x3ea420703e29334dU, 0xbd9051fd3d0730d9U, 0xbe8de517be5f865bU, 0x3e57cf443d12b517U,
  0xbe745330bd671e67U, 0xbde981b83ec501ceU, 0xbe8374f83e41587cU, 0xbdf8e074be2fcd70U,
  0xbf14fbb13e8e4b39U, 0xbf0663cd3deedabeU, 0x3d98e6ee3dd3ee62U, 0x3db9e3a3be15fb7bU,
  0xbdaec163be631ecfU, 0xbbc4d21fbecec295U, 0xbeb303633dc4b3b5U, 0xbc2217113e0f1420U,
  0xbdcad7e4be613a2dU, 0xbd65cd1fbe334d04U, 0x3d83f0cd3c3f80a0U, 0xbe6242cabdb965f3U,
  0x3d784b42bf0c3f2eU, 0xbeeae578be518d09U, 0xbe814be3be80449cU, 0xbeff056abcf74062U,
  0xbe764fb4bc931f7dU, 0xbd7e60f93d40f66bU, 0x3ecf9f553d71243eU, 0x3da95c763d162234U,
  0xbd53060bbee94223U, 0x3db6667bbdd28299U, 0x3e0e810ebf013941U, 0xbe97b13ebe700f50U,
  0x3d5c4d18be73f256U, 0xbda242a33ccc9b4cU, 0xbf077ceebe0a062eU, 0xbe71f7ea3d7aa422U,
  0xbd38412b3e311953U, 0xbdaddaa33e503745U, 0xbe001ae4bf1bab4fU, 0x3d67ca6fbee3bdd6U,
  0x3d6e9715be0fe546U, 0xbef16bcfbe1d6190U, 0x3d6b6fe9be8f36feU, 0xbef72764becbe04bU,
  0xbe85cb96be0a3e0aU, 0x3eadc2983dc69d30U, 0xbec4e1ebbece2955U, 0x3d8bc9df3d1f2388U,
  0xbe2624e4bd9e7fc6U, 0xbd8b5fe7bdddb9d1U, 0x3d9df7463e7797f8U, 0x3db61290be0a7becU,
  0xbe993ce0bd9821aeU, 0x3e8aef863e644484U, 0xbeb8a7f53c39a029U, 0x3ebebfdbbeb99303U,
  0xbeba40eb3ea3c272U, 0x3e12197e3ec13170U, 0xbe9f640bbe9ae6c2U, 0xbe050caabdf192feU,
  0x3e3ec42c3e31bc03U, 0x3ed07081be5d6dedU, 0xbeb729af3b94bd55U, 0x3e039f903dc74cabU,
  0xbe9d07213c2bd042U, 0x3dc62f43bb69bf73U, 0xbd70f449bdfbadf6U, 0xbd8914ab3e6cd1c4U,
  0xbf1a7fa23e85ee2aU, 0xbe26efeebd1d0496U, 0x3c9874013e56769fU, 0x3e9fc193be6a68b8U,
  0xbd7d0c843d8ae931U, 0x3d2d154f3d71267bU, 0xbe580e4dbd678fafU, 0x3e92585cbe9cacf0U,
  0xbed173303ce7db2bU, 0x3e1034c93e149b55U, 0xbe3dd7a23e752137U, 0x3e4aa6a8bda229d5U,
  0xbd10f1713ddc030eU, 0x3eb05b4abe18fadbU, 0x3d8172bfbe24b6ccU, 0x3e58cee53e5adbacU,
  0x3e4af22abf4b4fd0U, 0x3e8c35a23c8cada2U, 0x3d0ede7a3e6b7d0aU, 0xbe3280533e501d86U,
  0x3e3f21423c5b8515U, 0xbe3129b83d02465dU, 0xbbebdd9ebb5e1493U, 0xbb6dafbd3dc77375U,
  0x3ea0358c3de2a1a8U, 0x3d787f19be52b3baU, 0xbe0ad0843efd1060U, 0xbde2e5dc3d64c03eU,
  0xbeacf23bbeb3ba6aU, 0xbf12b9833d3aadb3U, 0xbe8016f7be9f1248U, 0xbf1af70a3e519f68U,
  0xbf28df343e61194aU, 0xbd8fbd0a3e567ca3U, 0x3e173dd6bea8f370U, 0xbe9de4793c450660U,
  0x3d55db383dd61e69U, 0x3eabac163e1d2f9fU, 0xbe91c0dfbe613ba2U, 0x3c9c9249bdc8ebcbU,
  0x3e487ebe3db83915U, 0x3dde4f603e38d990U, 0xbe6c01283d28811dU, 0xbb46351abdd2e2f3U,
  0x3e951105bd362276U, 0x3cbbaf57be34dea7U, 0x3de688f2be16c9c4U, 0xbe2778f63d5edb55U,
  0xbe834d3f3e381affU, 0xbe5803f93d33ea9bU, 0xbdd25a60be783f5cU, 0x3db7264f3ea0c1f6U,
  0xbddf07563e265934U, 0x3e3009a13e29da73U, 0x3d9c6423be87ed6fU, 0xbdbd31d83e729f82U,
  0x3e538e863e7e8ad5U, 0x3decb248be6a2b8cU, 0xbec2ef65bd9c4372U, 0xbed3934b3ec24bdeU,
  0xbe681028be8ee77eU, 0xbec14f813d9a8aabU, 0xbe656e91bf118fbcU, 0xbd4735b6bee80542U,
  0x3cadbf24bdf092f8U, 0xbe865a8dbe9a2cf5U, 0xbeba7d35be7bb72cU, 0x3e988792bd2eee33U,
  0xbe58d2dcbd843744U, 0xbe2493f03dc24684U, 0x3cc27c10bee7d431U, 0xbea0c4ebbd197400U,
  0xbe34ea0abeb85dfcU, 0xbe069122be8df6c3U, 0xbd910a22be3b6797U, 0xbe90cf60be091aacU,
  0xbede23d5bddd8ae9U, 0x3d9450a1bd9faa84U, 0xbe607ae0beadf167U, 0xbdb9562bbc68d674U,
  0xbe1dc55dbf083613U, 0xbf0455ce3d9526c6U, 0xbddabc34beddc9fbU, 0xbe205d54bed64a8eU,
  0xbd8a6cb53c2751ddU, 0xbe4c8ff8bea8c6e1U, 0xbe870da6be58b6a1U, 0xbe170e9abdc624eaU,
  0xbe013b963ce0e5f5U, 0xbeabdb25bd6802d4U, 0xbe7f04bbbea12f1bU, 0xbec2eee5bdd9cf61U,
  0xbea19640bf051589U, 0xbe7362c9bed938bdU, 0xbe5b526dbe46fa93U, 0xbd14f9d1be5fb093U,
  0xbeb7cb603e05145cU, 0xbdd57083bc0bab94U, 0xba0206b23d93ddcbU, 0xbf08f9353d73d2b8U,
  0xbc871271bf336704U, 0xbeed18d2be6c8fbcU, 0xbe1ef6d9bf0aef61U, 0xbe80cbfbbe700c76U,
  0xbf365f22befbab8fU, 0xbeb02bf4be8dffb2U, 0xbebac3c2bdec1dbcU, 0x3e88477ebf1d8a34U,
  0xbee5beb2bf327ac1U, 0x3f114007bdbae221U, 0x4014f68e3f460a6bU, 0x3f666bcd3f84e56cU,
  0x4000a28c3f3c7954U, 0x3fd509d23f7b0223U, 0x3f2932053f825066U, 0x3f53e2a73fa60d39U,
  0x3fbbca583f6e7723U, 0x3ffb9c323f9855adU, 0x3f8d4ac83f8bbfc9U, 0xbf4d839a40a89532U,
  0xbf3345dfbf6ddc70U, 0xbea587d6bee91514U, 0xbf83b7c6bf536854U, 0xbeb7c094bf07418dU,
  0xbf57e024bee88eccU, 0xbf08b429bef84d33U, 0xbee278c2bef1f7b0U, 0xbf515ae7bf30b8b7U,
  0xbf0481d5bf1371a7U, 0x3f1eeb7abf70ff3eU, 0x3dcd87a4bf4c6074U, 0xbdb37876be2a5325U,
  0xbd28bfc7bd86e89bU, 0x3d14371dbe08e1d4U, 0xbe97eec4bc66a002U, 0x3e90bf43bdd14654U,
  0xbe90ede9be9ee9b9U, 0x3dd2da2ebe83b0f1U, 0xbdf8787cbe9a16d7U, 0xbdac13363e34e2e6U,
  0x3e44afda3dc3223bU, 0xbe1be140be93951eU, 0xbe9226633d44b41aU, 0x3dd151a1bd887f26U,
  0xb9d5e126bdf343abU, 0xbe16de773e9d0429U, 0x3e4ed284beb07dc5U, 0x3e917a303f30f8f9U,
  0xbe18818cbecbcf26U, 0x3e30c5ac3e02305fU, 0xbe9f58e13d127f98U, 0xbe1f88c83d5fb3f6U,
  0xbcd45d5b3b33a61fU, 0x3d4a62543dbbb48aU, 0x3e3ebfea3daaf590U, 0xbe68f835be88b965U,
  0x3e918bf7be96a532U, 0xbdd50dc8bd2d03e1U, 0xbe96c27dbf047b65U, 0x3da347743d11a909U,
  0xbd3305bc3da73c7cU, 0xbc8edf593d964f81U, 0xbe81b86c3f07d49aU, 0x3dd50a433de37bf7U,
  0xbe3349353d885691U, 0xbf22edccbe9982ebU, 0x3e841313beeabfc2U, 0xbe96e9fbbe420575U,
  0xbe89d403be2ce8cbU, 0xbdfb8a793cefd07fU, 0xbe304372bdeb4f11U, 0xbef857efbed48b7eU,
  0xbe75ce993e6732f8U, 0xbe46ed0f3df44addU, 0xbe6b0494be6cf947U, 0xbe7b7322be915427U,
  0x3eac7f9abeaf8706U, 0x3dd486d63db18fc2U, 0xbf1516ba3eacf97aU, 0xbe544db9be48ec96U,
  0xbe497b263cc20fa6U, 0xbe8380853eba8789U, 0xbe0978d9be87fe2dU, 0x3e261a3f3d13a79fU,
  0x3e22441cbed2b36dU, 0xbe8400c13cace168U, 0x3ead9ad8be6400fcU, 0x3e17a1c93eb1a65cU,
  0xbe7c47babe20bbc7U, 0x3ea09df13df41834U, 0xbd92d2e8be527531U, 0xbc7ff9123ebd04feU,
  0xbb8f40aabd810ad9U, 0xbe32fc69be4a1696U, 0xbe160170bcf19a87U, 0xbe3b5ffbbed3a78bU,
  0x3eb4b30ebf091fb3U, 0x3cf4b1eebe0589a3U, 0xbe1571cb3dabd204U, 0x3eaa08883c825a0aU,
  0xbe5d568abe6aecdbU, 0xbe2d771d3cf89b46U, 0x3d4a7e223d026674U, 0x3d2dc089bd774fc8U,
  0x3d0ee3dfbf5c97caU, 0xbe847e2fbde6aa9aU, 0xbde0b7b7be82494bU, 0x3eb2e0c23e3b64c4U,
  0xbdce628abef70aedU, 0xbe7c0e51becc678aU, 0xbec2b9f63e232a49U, 0xbf07335b3dbd2df2U,
  0x3e6d8f2b3e007967U, 0x3e83ccadbe30b7aeU, 0x3e3b6ce6be36065eU, 0xbece0b363e92cd3cU,
  0x3e4c0b42be63ec86U, 0xbdfe4ddb3e911d80U, 0xbed7489bbf02df6eU, 0xbc09ee9d3ca577eaU,
  0xbe5052b03e60d660U, 0xbd4a404e3e17c31dU, 0x3cb213e23ecf6c0cU, 0xbdcd873ebe89ba38U,
  0x3ecc368abe4740f5U, 0xbf06d62ebee170f2U, 0x3e0c35dfbe13d361U, 0x3e16e54f3e655859U,
  0xbf00523ebee974a5U, 0x3dcd62ca3c00ae85U, 0x3dcb2002be94b8b5U, 0x3d13dfcc3dbb77c6U,
  0x3e102870be106809U, 0xbd5d2b71be36d700U, 0xbea317ecbeb99767U, 0xbce3edfabe38b764U,
  0x3e95309ebedd7cb3U, 0xbdbd04b8bdfb4d92U, 0x3dd4e4d3becb4a60U, 0x3dcdbfc6be8feabbU,
  0xbe46bcdebd045455U, 0xbddae7dbbee30995U, 0xbcb5ff643e3a8201U, 0x3e1372523e08bacdU,
  0xbf02120bbef6f467U, 0xbe8175db3e555412U, 0x3e0af43fbe9a1aa4U, 0xbe199c283f229a51U,
  0xbed37d2a3c8ef12eU, 0xbd23ec5a3d61ab26U, 0xbd858d97be2c50b4U, 0xbed04ebe3eb929feU,
  0xbe11c6d83aa9a5e3U, 0x3e4dcc40bdaa58b8U, 0x3c9d5acdbeec869cU, 0xbd4f98e03df736feU,
  0x3e4f9dc4bde5069eU, 0x3e2dcb1c3c90b288U, 0xbea9df03be01e234U, 0x3e4757c13e245324U,
  0xbea4a67abe96c68aU, 0x3e70fa053e27c2a1U, 0x3e6397e03d3a97bdU, 0xbc064e4bbdeeed57U,
  0xbd7b50ccbecc6c92U, 0x3bc1a38fbe9f9efcU, 0x3ea9f153be9823a9U, 0x3cf7f072be8ad9c4U,
  0xbe2f4d98bd1d3e87U, 0xbea7dadabd25cee3U, 0xbe6aa453be1aa8edU, 0x3d604620be9b980aU,
  0xbdc907023e0feda3U, 0x3dc8cf723ce06834U, 0xbe1a3eb1bea15985U, 0xbf1279d53b06b969U,
  0x3e15d20cbed82288U, 0xbe2b42353e6e60b1U, 0xbef5bd77bdeb1537U, 0xbe0ccaab3ea23460U,
  0xbeb32986bebed3d1U, 0xbf32fdb33e62013dU, 0x3e0de973befb7e27U, 0x3dd64fc7beea1229U,
  0x3e1d1daf3e23cdeeU, 0xbe643a2b3e83db14U, 0x3e2c3f5ebd2e72afU, 0x3e3509783e4e05f7U,
  0xbe14d3dabe0c3bb7U, 0x3e0bdd763eb3d45eU, 0xbdce5279bd87eb05U, 0x3e3ec1e33e64a02bU,
  0xbd4886963d06368cU, 0xbd896dbfbd85668cU, 0x3e2eec74bebb3105U, 0xbe4429c9bdd89002U,
  0x3e4205eebe73d612U, 0x3e80ca6b3d0b8542U, 0xbdda99d9beb22beeU, 0x3e4610bbbd86a095U,
  0xbe2608aa3dc7cbe2U, 0x3b680e753dca7733U, 0xbb86b2723e93770dU, 0x3dfa33653d7cdd7dU,
  0xbeedd65cbd366582U, 0xbe23c525be9c70e5U, 0x3eb07f2ebf01a20aU, 0x3e6eef9dbdfbbe42U,
  0xbe059593be886efdU, 0xbd1a3cc2bd90b7a9U, 0xbe893a60bf1c76a5U, 0xbcab7becbe6707f7U,
  0x3eabf754be25f1aaU, 0x3e879c5ebd22b4f5U, 0x3e44f20fbecda0ffU, 0xbd4d14a33e66ef3dU,
  0xbe0a0e3c3c32314dU, 0xbca457453e947984U, 0xbe85d705bf1b1be3U, 0xbe912fc8bdc3c14bU,
  0xbe2d921abe11d220U, 0xbd09f7383d808c63U, 0x3dcba5b23d215d92U, 0xbcca03bbbe9ca1b7U,
  0xbd054f463df3abf2U, 0xbe1879ecbd0c9424U, 0x3e0b586ebe3c0fa7U, 0xbdb003eb3dbd0df8U,
  0x3e44915ebebf9881U, 0x3efc69373e8902c7U, 0xbe2137b33d9dee82U, 0x3d580c2fbe3aab7bU,
  0x3e6fdd553d3057f8U, 0xbdeaa1823e3f623dU, 0xbdbf022fbe2f6967U, 0xbe077ababe58671aU,
  0xbdc2478cbecda2f1U, 0xbb80c9b13dac4f67U, 0xbe4285b4bf2dd7a9U, 0xbdebf7f4bb8f4f32U,
  0xbed02778bd8db2e7U, 0xbee5ccd1bdd227fdU, 0xba3516d73e83d19cU, 0xbeb65d4bbe4c208fU,
  0xbeff75f4be30e6feU, 0xbead3b61bd97af8aU, 0x3e24b399bebff0b3U, 0x3c160298be5901faU,
  0xbe9d618f3e415731U, 0xbe12a3c6be22a70bU, 0x3c9c4e67be0d1ed3U, 0xbce2f1c73d249a3dU,
  0x3ea1ebb13e7f263fU, 0xbdb76d4abe7d384bU, 0xbf00f634bdc088d6U, 0xbe019ded3d091153U,
  0xbb5e00a6be65714dU, 0xbd1fb47abd63cfadU, 0x3e46825fbd8ca1b4U, 0x3e07dca93d5b5484U,
  0xbd8b69c8bf0ad3f5U, 0xbe829bf23d84029dU, 0x3cdab5f53d9c317eU, 0xbd9f18593d7a5f69U,
  0xbeb4548e3dc2edfbU, 0x3e278c92ba2b6a77U, 0x3e5513b0beabf428U, 0x3e4034bfbe906fc3U,
  0xbe471a67bebecf3aU, 0xbd7f5802bd779061U, 0xbd0f0f5d3d8c3a0dU, 0x3d5cf18b3eb91ee0U,
  0x3e5bd3c9be677dbdU, 0x3ddc55d5be10c028U, 0x3ebaf3efbec9037eU, 0xbe3d2f93be5cfbbaU,
  0x3e3a84253dbbd0b0U, 0xbe68de1d3e2697b2U, 0xbeefe160beee290fU, 0xbe139044be33b6d5U,
  0xbca30b50bd7da53cU, 0x3d98c280be990aa9U, 0x3e0db0b8bd284317U, 0x3cfecee63bb1e31dU,
  0x3c5eef82be382729U, 0xbef7680abe1e0b2fU, 0x3d67d26ebebf8404U, 0xbca79319bc2708a3U,
  0xbdbb93b6bdcd82a8U, 0xbdc38810bc9252deU, 0xbdd714e5bd00f563U, 0xbe27d7d33ddd31b3U,
  0x3eb0aac73eae598eU, 0x3e5fdf15beae45ceU, 0xbd1ea762bf023c36U, 0xbe75d0763d537293U,
  0xbc597966bede55acU, 0x3e97025bbe3a8121U, 0xbe9851cf3e028eb1U, 0x3d7d28a0bd39ba19U,
  0xbe43f6ab3d139ca2U, 0x3cbe7bc83ef136d9U, 0x3e837cf4bea5796cU, 0xbd2d7171be00149cU,
  0x3e94d23d3c08c81dU, 0xbe138529be952a86U, 0x3c23d5fc3e8b5d88U, 0xbe27d54d3d582374U,
  0xbf320cf2bee801c2U, 0x3be16cb43e3c20b6U, 0x3d82b2f93e83412aU, 0x3e93908cbdefcb5bU,
  0xbe05a2ac3cb2e03eU, 0xbe6ab92cbcfb1511U, 0xbee9fe9e3ca6f142U, 0xbe2c3421bd71f037U,
  0x3db26e92bd49a629U, 0xbf1a1b3d3e56e9e0U, 0xbbd897c7bea3718bU, 0x3de5c1313de7ce42U,
  0x3e5617aa3d9894d3U, 0x3df92729bd009045U, 0x3e9a7ef03e8f91b4U, 0xbe06161bbe312b58U,
  0xbe85c59cbdd3e985U, 0xbe21a91f3bcfef1eU, 0x3c4bb4be3c47988aU, 0x3c91746b3e9bf1a8U,
  0xbf0abf45bec913b4U, 0xbe67c482bed5f01aU, 0xbd9336debd189235U, 0x3db0d15f3e88c670U,
  0x3ea4ca2dbe9a96e1U, 0xbe3b60bebe73b56cU, 0x3e92fc23bd35c005U, 0xbe813160ba3b8d71U,
  0x3e8076fdbe4d23e5U, 0x3e24b13fbc24497cU, 0xbf0d493cbe90bac1U, 0x3d5f2ce43ec578f5U,
  0xbc60567ebe616dc3U, 0xbd2510b03ec52f37U, 0x3e98b8f6bcefeb0eU, 0xbead5ec9bdbc26d6U,
  0xbe51a844be3f6df9U, 0x3d1ce255beb166b2U, 0x3e15b4b8beb84470U, 0x3e99f6bdbd0886bbU,
  0x3e1c3ba9bdf23385U, 0xbe1add79bd4c40bbU, 0xbc257544bd284bf4U, 0xbd8168463cb75e4bU,
  0xbda25a763e8c0ec4U, 0x3e86b60e3ec0b137U, 0xbe1bbf243da7da9fU, 0xbea04002be6ae97cU,
  0xbe477547bdc01154U, 0x3dfa190b3ea96979U, 0xbefad068be45915eU, 0x3ddda4653d193165U,
  0xbe065c033d3e8163U, 0xbe4bbc083eda0134U, 0xbe1f9c72bd5c4d80U, 0xbe15c392be58d27cU,
  0x3e798b5e3b90d311U, 0xbe5de2cfbd2b173aU, 0xbab100323d9f0c67U, 0xbd891ca5be76930cU,
  0xbec866dbbda46752U, 0x3de3d6903e05eecdU, 0xbdc6a495be9ed76dU, 0x3bd698b43df62befU,
  0x3e4e3ef8bdf1e723U, 0xbdb396b0bdc809afU, 0xbe3b5249be5756d1U, 0x3dca38e8be04f2d6U,
  0xbce0f884be76590cU, 0x3e2d3adc3eb777d0U, 0xbe4ffe56be07e873U, 0x3e3a724b3c5b81d0U,
  0x3ecae70abc2a149dU, 0x3d8b935d3e017993U, 0x3e72f33f3e968cd6U, 0xbe8ff342bead9eb7U,
  0xbe53bb8bbe25a266U, 0x3d4129aebf0de407U, 0xbe6553d3bec13b6bU, 0xbd725d2bbd30cd76U,
  0xbf2e8c1abd576d28U, 0xbe398410be631bebU, 0x3d014eabbe6a85c4U, 0xbd7fb2f23dcbb368U,
  0x3e80ff153d9164a1U, 0xbe97463cbe038378U, 0x3ccb8c1e3dff8f07U, 0x3e82ab20bdb03f40U,
  0xbe02e634bd75f781U, 0xbea7fb8b3e99a770U, 0xbf13fd9e3e248b1eU, 0xbdd2da7f3d2983a3U,
  0x3e15aec33e0de413U, 0x3d33a1d7bd29d865U, 0x3d1e2b713e3dbd85U, 0x3d353a64be58347aU,
  0xbdf69634bdeb64a5U, 0x3e3a1afabd55b6d7U, 0xbdf8bfc5be989b2cU, 0xbeaa726d3e176672U,
  0xbf1f82a3be8f1104U, 0xbe565335bde3c2a3U, 0xbecacdce3d8579f9U, 0x3def58543e2edb44U,
  0x3dda13633d5e17b8U, 0xbe97984b3bbf4031U, 0x3e5fff00be4b18e1U, 0xbcb780a0bf0be4a1U,
  0xbcb18203bf2488daU, 0x3e554523bde11953U, 0x3e314be6be8d9872U, 0xbb371b49bd31ef75U,
  0xbea3fd1abe87da5eU, 0xbe63d8e13d0763a9U, 0xbea00f5abe8b6722U, 0x3f034aa8be918e22U,
  0xbdb3de11bd34ff38U, 0xbd222bba3f17993cU, 0xbe32e05c3e36c8b0U, 0xbe1a8afe3e24d0b2U,
  0xbe7c9f413caba329U, 0xbd8f075abdb8d3eeU, 0xbf22b8843e3ebb16U, 0x3e5dfe0cbe8fcd67U,
  0xbe3cda32bbc5f84fU, 0x3da60a28bdb758d4U, 0xbdf79fc0bd80eca1U, 0xbd8189e33ebcbc9dU,
  0xbf4b956cbed1c190U, 0xbe4a044fbd4d0570U, 0xbe65e99b3e08ec85U, 0xbddf31c1be4dfffcU,
  0xbe25c5203e306b0cU, 0xbf0e593f3eb6e5c9U, 0xbe55f70ebe9f0befU, 0xbeda31b4bedf6712U,
  0x3dbe90e63e48a097U, 0x3e88514cbdc6856bU, 0xbe880e123e64237cU, 0xbe2ed07b3e4731ccU,
  0x3d6474cc3eb8061bU, 0xbd8a880c3eaeb928U, 0x3effd335be4679aeU, 0xbe202897bed1315dU,
  0xbda39dc13c449f2dU, 0xbe8f5c573be5f601U, 0xbe4fbc65be47742cU, 0x3e1eb2f6be94ffecU,
  0xbe3498cc3d775784U, 0x3d1a96ffbf07fce2U, 0x3e4c09c83ee0b192U, 0xbd70c5e5be1d19d3U,
  0x3d2acae2be928372U, 0x3d90d755be30c651U, 0x3e434eaebc46b882U, 0x3c86212ebe328d85U,
  0x3e50f0703e1d0531U, 0xbe80cc60bd7618dfU, 0x3d6c5df0beddca71U, 0xbce4cbf2be7dc38eU,
  0x3eb5e9e33b8d1033U, 0x3e5e2e39bbb7d073U, 0xbe6056b43ebc11d5U, 0x3eaa492abcf358baU,
  0xbf05694a3e09abf6U, 0x3ec2d68b3eddade6U, 0xbec8cb143df9edccU, 0xbea8154f3ea08b95U,
  0xbe1a69dabec5e986U, 0xbf0abdfbbe436edeU, 0xbe40c367be622e3cU, 0xbda1baa73df7009fU,
  0xbe48d0e7be2da2e0U, 0xbdadf3763e45b4c3U, 0xbe162540be3285b4U, 0x3e1916c53e359adcU,
  0xbe9ce9943d7fa986U, 0xbe3e51293ee4f609U, 0xbe45f582bb82f2d4U, 0xbe4d3ddebe85abd9U,
  0x3d9d646d3c5bd544U, 0xbe90944f3ea74b83U, 0x3d8226e43d042780U, 0x3ad838cfbe308be7U,
  0xbe2360e3bcac7755U, 0xbdc8a8573ea579b1U, 0xbe3f20f53e0c5849U, 0xbc3b60f03d56ca6fU,
  0xbe3e5deabdc7727bU, 0xbe3e8962bd147ba6U, 0x3e92bfa33e17fa72U, 0x3cb11efbbe8e40c9U,
  0xbd87610b39917afbU, 0xbe830c903d7927c4U, 0xbe18c9e0be1c3b27U, 0xbe20a29ebe1ef7a7U,
  0xbde1dc12bdd1e4e8U, 0x3e23ac3f3d404925U, 0x3e434b39be5cb47cU, 0xbbbdcff4bcc67a4eU,
  0xbe88d14c3d8e0092U, 0x3e3cce7bbe2230e9U, 0x3dc205b93c80b673U, 0xbd27c670bddfe8e2U,
  0xbcaa94373e6184aeU, 0xbe6706d9bbeb5b79U, 0x3e894978beb9ee41U, 0xbe0658a3be810641U,
  0xbd8be3f23da050ecU, 0x3d617306bdf361ddU, 0xbe605d7ebdc6aeb8U, 0xbe37da98be704496U,
  0xbebe723abe4ad4a7U, 0xbd8da4adbdedb768U, 0x3a29d4f8be2bc8f3U, 0xbe0f4ea03e5399dbU,
  0x3e086ea63dcd105fU, 0x3c45eec43de37fabU, 0xbe30a1263d7be53fU, 0x3d414c483e81e1eeU,
  0x3aa96bfbbe6f3ce8U, 0xbc3aff093eb347faU, 0x3e212dc4bdc7ff27U, 0xbd64e060be625007U,
  0xbe90e3f1bec81d1aU, 0xbcf4b5353ccf88c6U, 0x3e65662abd85138cU, 0x3ecfb8bdbe3852eeU,
  0xbf3e38153e8ada34U, 0xbd9ab6f93b83a5ebU, 0x3defd8fb3eb70777U, 0x3eb7c82abe807962U,
  0xbd967e43be543bbaU, 0x3f2ad0493e64ce84U, 0x3e3bb0823dca7810U, 0xbea46409bdc69628U,
  0xbc2e7aac3dcef0d4U, 0x3dca2aa8be4e8d76U, 0xbdf7775ebaf58049U, 0xbe999db73cc8f3a7U,
  0x3ee950ebbe882153U, 0xbdef4a47bf0fc06fU, 0xbe1ca3e53f009090U, 0xbe4c4226bed9d36cU,
  0xbdb2624fbbeb8716U, 0x3e97686e3ea1cfceU, 0xbcbc455bbeb3f109U, 0x3cef925b3e89c021U,
  0x3e943a76bea7239aU, 0xbe15126b3de80537U, 0xbba68253be205d76U, 0xbdec54abbea22507U,
  0xbde94ae2bc8d64bcU, 0xbe70561abeecf9d8U, 0xbe965937be9cf968U, 0x3f239559bde1b277U,
  0xbe840ccdbecc7b39U, 0xbdea9f1c3f08f4d8U, 0x3da7f060becbb4b6U, 0x3df203c23e2650c8U,
  0xbdc05de9bd6f31a8U, 0xbd1072623d8a46ccU, 0xbec596b2bd59a6d9U, 0xbdee6dd1bebca7faU,
  0xbed1347dbe0b76cbU, 0x3e3a9243be872f27U, 0xbf0b5eefbec0720cU, 0xbe40731d3eb00bf0U,
  0xbdbdb6bdbeaa5428U, 0x3da7f08ebce96d7cU, 0xbe07e9d3be84d8d9U, 0x3de08189be2dcbc3U,
  0xbd81d42abd78c3e5U, 0xbe03f3783e32a485U, 0x3ce82d623c722406U, 0xbe0c0944be6b817aU,
  0x3cea921dbeb208bfU, 0xbf0d428aba54f6e2U, 0xbe6ef5cd3e5a9593U, 0xbe1787f4be9113b7U,
  0xbe0e361bbd877899U, 0x3d80363f3d8f1191U, 0xbdadbffa3dfb49dcU, 0xbe8427e5be661299U,
  0xbdacebf33d8d4e09U, 0xbeaecf483e7c4f07U, 0x3d33eb5a3d91620dU, 0x3f0a0e7fbddf8ac6U,
  0xbd7cfa423dfda873U, 0x3a8bf5d0beabfe02U, 0x3f03c4af3e3eda14U, 0x3b9a3f2dbe091426U,
  0xbdf7632bbe0a5ab3U, 0x3e38e984be416209U, 0xbe216ad43d8b3069U, 0x3e13f6ea3e8a680eU,
  0x3cc290be3dd324efU, 0x3d88e313bd516b84U, 0xbdd0467bbe34596dU, 0x3ddb85b6bb45c14fU,
  0x3d379338bd8563caU, 0x3d05544fbee7d432U, 0x3dbe0029bea1291bU, 0xbeab2bd53d9dabf0U,
  0xbe5c6a1d3d58e544U, 0x3e0a95a13de30d7cU, 0x3d81b054be476b81U, 0xbd9793713ee45f20U,
  0xbe2717e1bde86a6cU, 0xbdadbd23be679dd6U, 0x3dc0fbc8bcd86f5aU, 0xbecd2dc53d003053U,
  0xbe877da5bdc12d32U, 0xbeb761b23d6bbae6U, 0xbd897044bde7bc2bU, 0xbcc98fa9be84a8a9U,
  0x3ebd6eabbe98d9abU, 0xbd1f68393e5e6e85U, 0xbe7541a9bd0a40e0U, 0x3e4cfb38bd91b1a1U,
  0x3d5e7e8ebec74b74U, 0xbe369beabe2280a0U, 0xbe00333abdf997eaU, 0xbc9d0aefbc035867U,
  0x3b816453be94a663U, 0xbe80c37a3d5b8a09U, 0xb91d7ae4bef87e98U, 0x3d15dc733d1a8ce1U,
  0xbf11b8253d88db50U, 0xbd4aefa53e82117fU, 0x3e4167cebc11d4d1U, 0xbd9a5b873e64bf70U,
  0x3e392fe4bcc0f9d0U, 0x3e52a2e1be31a388U, 0xbe803786bdef4f47U, 0xbddade2f3e98464fU,
  0xbd35dfe3bdb48ab5U, 0x3e4b58e03c8d0644U, 0x3d400a91bda2836eU, 0xbbee9167beacfe38U,
  0x3ed7ff123eb010e3U, 0xbdd77a70bdd56641U, 0xbe205713bf0c0d08U, 0x3d710c7dbeb23185U,
  0xbee67ff5be48832fU, 0x3e4cdffebe8d9c30U, 0x3d6c1df23d9acfe5U, 0xbe841ebb3e12684bU,
  0xbe07e01bbe17924aU, 0xbc377f70be2b6be0U, 0xbddf41243dca7a7aU, 0x3e072951bee6786fU,
  0xbe4a093ebe52cbfeU, 0xbe75d8c5bedf7ef9U, 0xbe9fc781beee76e9U, 0xbe23b5e4bce75645U,
  0x3ebee7e93d718ebeU, 0xbe5099063e5cb81aU, 0x3dc66b5b3ec0e705U, 0x3e517fd03f012725U,
  0xbecdbebdbd180bebU, 0x3db0d9e03d2fdc45U, 0xbd816df5bd34ae67U, 0x3e5e7e2bbcf1743eU,
  0x3c0ddfc0bc9044a2U, 0xbf309177bc6f844bU, 0x3e45553ebd887541U, 0x3e528544bea9a220U,
  0xbdd6e340bcbe7986U, 0x3ccfd2243e3a4561U, 0x3eb3abcebe5f8e11U, 0x3ccf2de83eb48535U,
  0xbc836779bd49dc21U, 0x3e0edb3bbe661e71U, 0x3deada383e946c2bU, 0xbe5a58433e028166U,
  0x3d967da9bdc24b68U, 0x3e22e825be0f8331U, 0xbe6722efbd1991bcU, 0xbe89a975be293317U,
  0x3e82fcb539b5fde8U, 0xbeaea4a5bf175b39U, 0xbdf02b0fbe8b1897U, 0xbe2a2b53bea8ba3bU,
  0xbed148533e9b5e1fU, 0x3cfbfa373d5f109eU, 0x3e53e3c2bebac917U, 0xbe9d8702bc876dd8U,
  0xbc3f9f2dbeca1e16U, 0xbe02334bbe4b24a9U, 0xbe433e3dbe91f4dfU, 0xbda19d13be8d9021U,
  0xbd9439d9be24f4f7U, 0xbeb1c27bbef4586eU, 0xbe619b833e041a14U, 0x3ebc8b8fbd24abb7U,
  0xbd9867bcbea453c4U, 0xbd11b38e3f0f5c96U, 0xbe399d85be52e8c8U, 0xbe6a7340be897721U,
  0xbcb00c0fbb8b1891U, 0xbee14211bedbdc0eU, 0xbde7280abedce4f7U, 0xbe663a6a3db27ec6U,
  0x3c0451aabf0b1754U, 0x3e5167a83e4625c0U, 0xbe386780bec45b42U, 0xbe4d89583e7f42c8U,
  0xbea72c3cbe050b74U, 0x3e41f2853d2dfda6U, 0xbe911cf33db322e9U, 0x3d088953be06bba1U,
  0xbe1a01ae3e5586bcU, 0xbe092bf43d9f074eU, 0x3d81f5f5be481023U, 0xbe7befe1be5981d5U,
  0x3ec707ec3e4d96f7U, 0x3e68203fbe16b9d0U, 0x3d033d473e5ea41dU, 0x3e83a187be4c8540U,
  0x3ea77c503e14278aU, 0xbe21669b3db23dbeU, 0x3e75d4503e626dc2U, 0x3ec410d3be3b173eU,
  0x3dcd55b53e1949fdU, 0xbe0ed01f3e34c6c4U, 0x3e45ea25be85eac7U, 0xbe43ffa43c9ba4b6U,
  0x3d4334e43ebf9341U, 0xbec8b93bbed4976aU, 0x3e945f24bde1eaf8U, 0xbe8978cdbf34280bU,
  0x3dcfea3bbe5a8aa0U, 0x3d861612be99fcabU, 0xbe3c040dbdeb3f9dU, 0x3e4a1415bb3d44baU,
  0xbe8ec209bea1887eU, 0xba96acf13e192b43U, 0x3cb78f8abe49313eU, 0x3d9ce63dbe9c497fU,
  0x3e4f3cfabd05ce1dU, 0x3e16c6fcbe1b30f5U, 0xbde74a3d3d88c9eaU, 0xbebd18a1bedd868aU,
  0xbca9bb7abf05d4d1U, 0x3ed2070ebe464393U, 0x3df4bdecbf194f29U, 0xbe1e66e33f004ca1U,
  0x3e2fde1cbf23c179U, 0xbde7bd66beba9cacU, 0xbe0e935abe8229b4U, 0x3dac8161bed5d316U,
  0xbe7c55503e02a48eU, 0x3cf56b3cbc552e08U, 0xbe47965fbc804fb4U, 0x3eb31deebe2d920dU,
  0x3d3146fbbe27164eU, 0xbe4f3057bd120295U, 0xbe017c94be3b5244U, 0x3e857e853dd8c195U,
  0xbe855959bec42b22U, 0xbe09209bbe1539a9U, 0xbeb4234a3a2cbc0bU, 0xbe1024523dbab079U,
  0xbe8c50453e82e3b4U, 0xbd99f54dbf02f4a2U, 0xbdbec4dabeb0ec77U, 0xbd30bf373e2478bbU,
  0xbe14a3fa3f0e3b14U, 0xbcf0f8d9be4b40b6U, 0x3da9eccd3e98e9d4U, 0xbec63a203e6e2956U,
  0x3e2d8c9cbcbed964U, 0xbce5600f3ebc1c1dU, 0xbdb787d43a3cc90eU, 0xbe9805b23ec374d2U,
  0xbdf411173c0e9cc2U, 0xbe09c853bebd122cU, 0xbe88e2473c252194U, 0xbe451727bef58fa8U,
  0xbe59c1153cd782d3U, 0xbeb9e87fbe9aee53U, 0xbe92134e3da63a8aU, 0xbc4eea92bd66683bU,
  0xbecd278ebde10adaU, 0x3d5faf09befa5f8aU, 0x3ddcd72f397e2c61U, 0x3e31fa063e9b69abU,
  0xbee4622b3eac1d89U, 0xbd26fa7dbea19c97U, 0x3e172cf23e741745U, 0xbd40865dba365451U,
  0x3e2153fabe2d4253U, 0xbde3915dbe99e0e8U, 0x3cfe711fbeee591cU, 0x3dd98eb9bcf7a6b3U,
  0xbe209d67be00576dU, 0x3e574cc73e113bf9U, 0xbea03b42be37b055U, 0x3e0a4f66bd98fffbU,
  0x3d847c293dc138beU, 0xbe56cd87bd9a783bU, 0x3e882044be5da210U, 0x3e628bfe3e918a0dU,
  0xbe07876f3e823a19U, 0xba4497e8bdb6ce9bU, 0xbdc4e4003dde62b8U, 0xbdb81b12be6270a4U,
  0x3e24fe8dbe654332U, 0xbb083c64be0e5f3aU, 0x3d76e729bde24c91U, 0x3e925243bd991156U,
  0x3d969480be826091U, 0x3d413e033dfef6bdU, 0xbde19c79bd744025U, 0x3e251b06bc98ec73U,
  0xbb03edbdbe85dc16U, 0x3c84dfcb3dfcc41aU, 0x3d6d3b9cbdc45efeU, 0xbd8f588dbdf5cfe6U,
  0xbdc96f48be5833a7U, 0xbe095c3f3ec30351U, 0x3d869948bea515e1U, 0xbdee0bd5be0f3e54U,
  0xbdf9f01ebcd0c26cU, 0x3e1379d9be81ab50U, 0xbeba7586be63fdf0U, 0xbedaf3933ef557fbU,
  0xbeb55abcbea7322dU, 0xbe86e7413e223d98U, 0x3e2b1323bea4a53dU, 0xbe1c052fbeaa891fU,
  0x3e3208c3beb0ae47U, 0xbe972e5dbe5f7f4eU, 0xbe42eb59be8e1634U, 0x3e75e63dbc807c4eU,
  0xbea99b4fbe2cbe7fU, 0xbdd6a44b3dca891fU, 0xbf09cc6b3db5052cU, 0x3eeb1de13ddcebecU,
  0x3e0289bf3ddd75e7U, 0xbdfb1408bcb10266U, 0x3e9686de3dca2569U, 0x3e16b8ff3e860d8dU,
  0xbe673940bdec6bafU, 0x3d93dd7bbe1b1832U, 0xbe192c76bc89faadU, 0xbbb24211be5408c5U,
  0xbe6ed02bbdce4820U, 0xbe5fa5bcbe48be0aU, 0xbe5f2ee43e114a32U, 0xbe4c6041bdf99e4aU,
  0x3e61c648bd1c6e51U, 0x3d20265bbe139e8bU, 0xbe6b74643d92592bU, 0xbc5415d63f32d281U,
  0xbcbfc039bdaa83e4U, 0x3dbd00bebecf0f61U, 0x3dd60be7be4a276cU, 0xbeac6fc7be92fb5aU,
  0x3e1034e5be245a50U, 0x3e462c27bd404d4bU, 0x3dac2105be14b556U, 0xbe54ae303d6d4e80U,
  0x3e95a4afbe37da85U, 0x3eb8fa40bcf28786U, 0xbe1197b5bed3c63dU, 0xbcb705f83e9fa6c8U,
  0xbd859d223c7ce603U, 0x3e845e7f3e6f13ffU, 0x3c813f8f3dac87d3U, 0xbc941b5b3e365e79U,
  0xbeb5f8ebbd33d60eU, 0xbec514e1be2715ccU, 0xbe6bf240be2bfa12U, 0x3ed6a5e4bf146b18U,
  0xbe4552ffbc75a77fU, 0x3e4d7e1f3ea9d526U, 0xbdf5bf2d3dfac167U, 0x3e7e78f23ea27352U,
  0x3dbcca1dbcfec781U, 0xbee09981bde398b9U, 0x3e8535c6bd4853e9U, 0x3c7952debe14fbbcU,
  0xbe977fafbcf36764U, 0xbc73b538be8229b2U, 0x3d0c73e3beb40589U, 0xbe0c1b09be29f88cU,
  0x3c86ef4ebd65fb28U, 0xbab8e82ebdc77774U, 0xbe89e7073e08808eU, 0x3d0a5361be78553fU,
  0x3e1a0a54be2c49adU, 0x3ebd4c77be12e54cU, 0xbe93db33be70cbebU, 0xbe8fc64f3dd75b0fU,
  0x3d13d2c9bd2baf33U, 0x3df12787bce951f9U, 0xbe3537303df57fc9U, 0x3dea4e473dd9a408U,
  0x3e9115ab3ec5dfe2U, 0x3c5bfed9be9bc15dU, 0x3e01a93abeb96be0U, 0x3dc81f74bc46c4bdU,
  0xbd58494dbc4a2722U, 0x3e8597dbbe918445U, 0xbdb3130fbe814c93U, 0x3c91ad793e861955U,
  0xbdbbcf8c3cb38145U, 0xbec1bab0bf1be5a9U, 0x3da24f32bdadb889U, 0xbe4c2d9fbebb5ea3U,
  0xbf1af35c3c365e56U, 0x3e36a653bcbdf2e4U, 0xbda3a495beb6308bU, 0x3f01e7e9be754a48U,
  0xbea73514be9bb825U, 0xbf4992f03e9fe838U, 0xbee28fb4bf1803f1U, 0x3e1322383df1321fU,
  0xbebf5b78bed604ebU, 0xbe6e859f3bf9135fU, 0xbed376f93da495dcU, 0xbf487c253cc9749fU,
  0xbde98346beea9610U, 0xbeb9dbedbed07b37U, 0x3d3fb01cbe0f81b8U, 0x3e874d6ebe6419c0U,
  0xbef8ac3dbd1d7a85U, 0x3daeaa81bc2dfdc6U, 0xbecda96c3e1b5aa4U, 0x3e0fcacb3e97e5fcU,
  0x3ecc1c5ebdf5e3f6U, 0xbc61d3debdbfc504U, 0xbc44daed3e3113dfU, 0xbf522a87be1eaa36U,
  0xbea310bb3d9428e0U, 0x3f195145bf18b8edU, 0xbe06db8d3e2053fcU, 0xbe50a2c03df8d5b2U,
  0x3eb00f3f3ecdbc81U, 0x3e7ffbc93e796372U, 0x3d78873f3dc8e9e3U, 0x3ee61abdbe0e6d9fU,
  0xbde746713eecad5cU, 0xbd8cced83e64ea09U, 0xbe5527d63da84f16U, 0xbeaff0f7bf0d330cU,
  0xbe16d431bda81346U, 0x3e0e3e61be1e08f2U, 0x3f18ecd9be87271fU, 0x3d8685cfbd98fd1bU,
  0xbe6bb175bdf78eeeU, 0x3e106679be67261dU, 0xbe9ee8483c2d1b4bU, 0x3e9bd01c3e873779U,
  0xbe857513be736f63U, 0xbd906fed3e703dd1U, 0x3e695a14bd93451fU, 0xbe12a35fbd83b874U,
  0xbe22e07bbdd14653U, 0xbebd4cb0be94f9c5U, 0xbefb085fbe05f3e0U, 0xbeb2859cbdac13bcU,
  0xbed7eb1bbeced74aU, 0x3d9e38bebe3b2f64U, 0xbf29ec5ebeb3c92dU, 0xbe0164313f10d82aU,
  0x3c2103e9be4dff9fU, 0xbda532ecbdec85ceU, 0xbe4c96f83e318ac8U, 0xbe362a1cbe02b6b6U,
  0xbe153b7bbe9859e6U, 0xbde111023d1c4d40U, 0xbe2beb213d4b4384U, 0x3d07487bbea007d5U,
  0x3d91321ebe09adefU, 0xbe5f39d93e8eae07U, 0xbedc217bbc8f8eb8U, 0x3d0d68733e3c4eb2U,
  0xbe2cd712bd239003U, 0xbe8268fb3e93f5b1U, 0x3e8a524d3e183f62U, 0xbe87a3573e07c85fU,
  0x3db0fbaabe54149bU, 0xbef6e348bdd9ec38U, 0x3e3543e43e2f31bfU, 0x3e7bfbabbdb95164U,
  0xbe7e71013e7b4d1eU, 0xbe86b23cbe00de82U, 0x3eea9c013e5a6f66U, 0xbdcdfb4f3c4e523eU,
  0x3daac7543e5dbd7bU, 0x3ebbe7f9bd36970bU, 0x3cb762003e97e2e7U, 0x3d97069e3eceafefU,
  0xbdf5b7643e09507eU, 0x3d7544d8be9af01bU, 0xbe210f39bd75be55U, 0xbe012e50bcb5a88fU,
  0x3e9c6e82bd49acddU, 0x3dac35b7bd171adaU, 0xbe93db71be9e0d7fU, 0x3dcfb553bd5ba66aU,
  0x3de0b957be961da8U, 0x3e5ad3f43e09557eU, 0xbd6c6b6d3a61a5f1U, 0x3cb1a2133e09fb3cU,
  0xbe2e25373ccb31a1U, 0xbd88dea4ba7d5da5U, 0x3d186a2c3e08ee8dU, 0xbc264dd43e324991U,
  0x3ddef134bd2ac6eaU, 0xbb2635a4be0d2389U, 0xbedcf9073de35d96U, 0x3d827c36be9520caU,
  0xbd7a8d3dbeb843caU, 0xbca4ffab3e81cd54U, 0x3d789aa7be60360dU, 0xbd89f313be7d8cdbU,
  0x3e3ca03a3e351492U, 0xbe8032773e07cb11U, 0xbf0633363d322a8cU, 0xbe9eff22bd93045dU,
  0xbe546314be450eedU, 0xbe20e972bd49914aU, 0xbe780f71be9906c6U, 0xbf2acb623e5ba841U,
  0x3e05dd8bbd60870cU, 0x3e9ab9653ebac3c5U, 0xbe3ae5d6befd1b28U, 0xbdf2c864be57e871U,
  0x3dcfffa2bcf47d37U, 0xbe69669cbd570a83U, 0xbdc03a8cbe06b071U, 0x3e038da33d1ebd88U,
  0x3cb607d9be99b525U, 0x3cde96efbdba0f39U, 0x3e2f2b993e9a6566U, 0xbe3e157ebeb28c75U,
  0x3d687fd4bd79c117U, 0xbf0019dcbd184bddU, 0xbe06b6763cc0431cU, 0x3d18678abe6dd6b2U,
  0xbe73745d3d757cb2U, 0xbbc1dc82bd3ca240U, 0xbe64e52cbe6c4239U, 0xbe26fcfe3e781b9cU,
  0xbe104a0abde97effU, 0xbe3db20cbe67ff51U, 0x3e97d915bea6775dU, 0xbe9ee535be8ee02cU,
  0x3e295417be3eb7a4U, 0x3df71315be9ccb17U, 0xbec094e7bc89a77fU, 0x3ec558513e0d585eU,
  0x3c59af02bee996ecU, 0xbe90b0af3c936af7U, 0x3cdb49f1be85aeabU, 0x3db06c7dbeb80bcaU,
  0xbd510748bd0e66b4U, 0x3dab54c0bdef11d9U, 0xbecb5368be5745b0U, 0xbd932ad5bd616b67U,
  0xbc899dccbe865a1dU, 0x3dbd1615bde75db7U, 0x3eb7d392be9dcfc4U, 0x3cdf0144bdee8cfbU,
  0xbe12388c3c405a98U, 0xbcd255103c8a08a1U, 0x3da98b593e2f4f44U, 0xbea62b45bd20a2ccU,
  0x3cf6bc5fbd88745eU, 0xbd739e8cbea002a7U, 0x388430f63e153a43U, 0x3b85d971be9c52c8U,
  0xbdb44851be3cf6d4U, 0x3f0d5889bdb05a98U, 0xbf083a073e0466e6U, 0xbe400ef93e405e86U,
  0xbe0c9fb13e2ea7e3U, 0xbcd3dffebe1955a2U, 0x3e3f69ec3e0429fcU, 0x3e2756edbe17d859U,
  0xbc6a7603bdbe4c7fU, 0xbea59a793e03f845U, 0xbd977c11bd449951U, 0x3ea39986be586f8aU,
  0xbe705aebbe5278b4U, 0x3e8577313d274c39U, 0x3e8fb2c33dfd6298U, 0xbd8869fabdad80ddU,
  0x3ea16603bca1824bU, 0x3d35e45cbeeeb664U, 0x3e87ab4bbde04edfU, 0x3e51596c3ce5c301U,
  0x3e9e5162be5f371eU, 0x3d33215dbd82eebfU, 0xbe81fc3e3e5c9976U, 0xbe9db04abc7ce6eeU,
  0x3e9b641fbc9d6dc3U, 0xbe9f656fbeea123bU, 0x3ad20194be5a6326U, 0xbd45c4583c6d81e6U,
  0xbe35d1dc3c36139fU, 0x3ea153b9beaf6a7aU, 0x3d52984cbf0d5988U, 0xbf0885493da27647U,
  0xbe888549beb67c1aU, 0xbedd0235bed8f7b2U, 0x3c4643bebf1ac4f0U, 0x3c0e122fbe6e1c90U,
  0xbd5598793d985223U, 0xbe200647be586970U, 0xbe6ac563be8db76eU, 0x3e4056e8bcccf621U,
  0xbd9e0e0ebeb26680U, 0x3dd79ae93e946546U, 0xbe6e32053e41cb08U, 0xbd97f4c0bdac5b26U,
  0x3dc840c5be4b2f39U, 0x3e5e31a23de5cdc4U, 0xbd55e048bdbd4a44U, 0xbcd426b8be1c0998U,
  0xbe6cb74fbdd3f3c6U, 0xbe0ebbebbd97ace9U, 0xbda6b2b6be3673a7U, 0x3ccd5a6f3e0e4189U,
  0xbe5af7b33b2d6c04U, 0x3d368741bc049050U, 0x3f063b98bbaa81e0U, 0xbe7e9d093db58412U,
  0xbe26aa133cea72a4U, 0x3d837f23be943c3bU, 0xbecc44a03e8c3a21U, 0x3e04af75be9b8f4cU,
  0x3c6a4ff33d1fa281U, 0xbf12b830bcd18a46U, 0xbd6243563db30e7eU, 0xbe93b121bcd9d14fU,
  0x3dff29ba3cc1fd13U, 0x3d71ff353ddd2654U, 0x3cf38371be95ae5aU, 0xbc3a20e2bdbd8855U,
  0x3a950ed33df6126aU, 0x3e1ee428bd8d5cecU, 0xbdc506dfbe6a6d35U, 0x3e3707c23e0bd890U,
  0xbedfa9c53eaf8a71U, 0xbe569efdbce41efaU, 0x3ec249473d92e117U, 0xbe8700adbe2da4efU,
  0x3e3cb77ebe6197ccU, 0x3e53c212be1f412eU, 0xbe084a313e06e9e0U, 0x3d9b563f3e343d4eU,
  0x3e8a9d19bed01b9fU, 0xbdeb8f6d3db4fd34U, 0xbef65b3dbda25798U, 0xbd86784d3e9f24deU,
  0x3e3d5e4d3de84823U, 0xbeb22b0f3e17f44cU, 0x3d0e0a163e24d1e9U, 0xbeb65de4be8d28aeU,
  0x3d169a29be86dcd9U, 0x3dfaad423d0f6e1eU, 0x3e8679043d289f5eU, 0x3d7efcb33e882aceU,
  0xbe8ae845bc95ff03U, 0x3dd3248f3d6c81caU, 0x3e5c03703eec083eU, 0xbe8cd904be3cae2aU,
  0x3dbf70dcbe5ab415U, 0x3d6ca6743dcf0f1dU, 0xbe9f4b6dbe8d35a6U, 0x3d253f88bdf8add8U,
  0xbec06d2dbe78c396U, 0x3d955d53bdb3e79aU, 0xbc6435ff3d830ef8U, 0xbe91667a3df2fc59U,
  0x3e169963be4b2534U, 0xbd9a83d13e466beeU, 0x3e8131ec3d7f1bf2U, 0xbdaaaf08bdd84033U,
  0xbda7d1923d4a3da8U, 0xbca98f05be65e026U, 0x3d85096abcd2b1d2U, 0xbe9e568dbdff3e48U,
  0xbe9188d23dc5cf97U, 0x3db76716be1ff46fU, 0xbdcc6123be088bdcU, 0xbd1f410dba5f03daU,
  0xbddf7c29be909dbeU, 0x3e12376abdfa5bd7U, 0xbdfe23f6bdc8316fU, 0xbe720adfbe3f780aU,
  0x3d8c06ecbf0e4371U, 0x3e268eebbe370e4fU, 0xbe22e566be8832dbU, 0xbe33e642bf07df1aU,
  0x3ea28457be82f60dU, 0x3d2c2e4fbdd45c0aU, 0x3c818d88be9a5ff7U, 0xbe6438eabe8578e4U,
  0xbea42cf4be135282U, 0x3ea2f3be3e95fd20U, 0xbeef9173be498516U, 0xbd30abc4bda4d999U,
  0x3e3dfeebbf0738b1U, 0xbe904dd4be3b7b1eU, 0x3dc17e00bded2eb1U, 0xbca92e25be95876eU,
  0xbea32a6fbe3dd4f9U, 0xbec7f1cabf19f4f6U, 0xbeb2f2d13d99ce92U, 0xbbd6ff82bea17d0eU,
  0x3d8f5320be56f75dU, 0xbf18e0013d81a74cU, 0xbe3ff786be16b1feU, 0x3e70b4b3beab680cU,
  0xbe41909bbdd2c6dcU, 0xbde1fe2e3c97b88dU, 0xbe65288abda7002aU, 0xbf015fb43d7c1a24U,
  0xbe1b5ef2be4591c9U, 0xbe6e5cbdbe88671bU, 0xbe5d6f21bec07971U, 0x3ee6b1373e414c2aU,
  0xbea14bc63ecf5957U, 0x3e00be13bd4b84f6U, 0x3ed13c3a3e8ae054U, 0xbe52f18f3d8ccc13U,
  0xbcd5a6e7bd4fb6dfU, 0x3e302cd0bf0ec065U, 0xbe0b0092bde43874U, 0xbeca2b703e9e54e6U,
  0x3e26b93abe9631f5U, 0x3e9ef03ebf0cd0b5U, 0xbdb277eb3de43576U, 0x3dc672d9be388098U,
  0x3e97325a3ee291d0U, 0xbe85a0d0be6aa2ccU, 0xbd79dcb1bdd2d681U, 0x3e386721bde7afdaU,
  0xbe8e90f63dbeac9aU, 0xbaf1d2cebe687035U, 0x3e06a6aabe1cb1c0U, 0xbe9bef6bbee1c6d5U,
  0xbc81f8febe7cc051U, 0x3e404b373c89fc88U, 0xbe5a5afbbd57757bU, 0xbe043e00beb35823U,
  0xbc852849be543147U, 0xbd9d5e453d449316U, 0x3d952905be9d4a9dU, 0x3e62f1bdbe566860U,
  0xbe7e3fe2bcd2812eU, 0xbdf0cd273e88c978U, 0x3e1d9772bd6d9925U, 0xbf11fb8ebea4e6a7U,
  0x3dbb9b0fbeb86d4eU, 0xbdcbca69be5f4783U, 0xbea8eda0bea35836U, 0xbe22e0e6be7d3ca5U,
  0xbe427e75bef608eeU, 0x3e989ad4bd25de28U, 0xbf13e7f3bedd5e8dU, 0xbeb837a83eeb1a27U,
  0xbec6a635bee86d97U, 0x3c36ff493ee5b385U, 0xbe6d8290bdd3b052U, 0xbdc5bc6bbf09a1e8U,
  0xbd5d3d06be259f4cU, 0xbf0b7ac73ee17596U, 0xbd243315be6e741cU, 0x3e188dd1bea0de3aU,
  0xbc9d97443dc043f2U, 0x3da64afa3db65facU, 0xbf192c213e1036bbU, 0x3d4d935c3e71f149U,
  0xbd7f43b8bd85bab7U, 0x3ddb04ef3e1fe14eU, 0x3e7b57fd3f3f5a8aU, 0xbc8f0730bc47b34fU,
  0xbe7ab83bbed7061eU, 0xbee525d83ea04a07U, 0xbe46a65b3bc43c58U, 0x3e86e67bbe428cf8U,
  0xbe612fb93eb76092U, 0xbdb7f38b3e04e668U, 0x3e53e8fc3e9999ffU, 0xbda4068cbd002d0cU,
  0x3e5b592c3d249ae1U, 0x3eba1ea93b2342e2U, 0x3d87a5633ed9e4c3U, 0xbe6c7dd63e8b8537U,
  0xbdc9dd1ebe0b116cU, 0xbdfc83f0bf21cb38U, 0xbedf47343e17fad0U, 0xbe5b3212bcd2dc91U,
  0x3e28c7fa3d66178aU, 0xbeee0eda3e478802U, 0xbd3dfdb2be8bd9baU, 0x3e883f6bbd6c0eaeU,
  0x3b8f9cbd3e6ec2edU, 0x3e41ef463cf26dceU, 0xbe160290bd64e867U, 0xba8e1d533ce3cfc7U,
  0x3c43266bbe2af660U, 0xbee4c0c6bf2ee806U, 0x3f216db83e498628U, 0xbdf8e059bea755a4U,
  0xbf2cab76becf33eaU, 0xbe31999abe4bf2d2U, 0xbea4a4febf1d4060U, 0x3f319e913d0a0314U,
  0xbe785439beba7ccdU, 0xbe2b63d53ed4acc0U, 0xbda4641bbe45c26cU, 0xbe9af3a13d7a6f30U,
  0x3cf73cfabe97c814U, 0xbe9bc88dbed3b711U, 0xbec9b73dbcef7a40U, 0xbf0d0c74be8dbd50U,
  0xbca6c4fcbf1d63c2U, 0x3e1eb21dbe57484bU, 0xbc1bd162bcf7aa25U, 0xbebabf9e3ebc10ffU,
  0xbf04a32db9c5e562U, 0x3e56291e3e16ff77U, 0xbd3accc3be333b9cU, 0x3deb628b3e68b2a1U,
  0xbddca73b3e8db03dU, 0xbe1f2cbf3e2d7e11U, 0xbeb3cf443ce550e9U, 0x3d6a72fb3e2c7093U,
  0xbe316307bdf5cb40U, 0x3ee432973e899a02U, 0xbe1039d4be8c9299U, 0x3d51d77ebdc0b009U,
  0x3ea87dd53e6f94b2U, 0xbd0061633ce3d91dU, 0x3d53e8313e275b00U, 0x3e37e2533e72e502U,
  0xbe0414523ebb9267U, 0xbcebaf323dc2bc49U, 0xbe477e083e7905b6U, 0x3cf2db53bde65f11U,
  0xbe85f801bc983ed5U, 0x3e6eb6ec3d7e2bd3U, 0x3e95af513d8cc5feU, 0xbea9b617bea73281U,
  0xbe86ba1f3eae80ddU, 0xbd5e9e23bdfa8987U, 0xbe8bafb6becd8377U, 0x3eca35b53dcf4b94U,
  0x3e36732cbdc163c8U, 0xbd4da79d3db691daU, 0xbe8ff14ebd077d79U, 0xbc3e3c133dfa127dU,
  0xbcae35abbd904f11U, 0xbe69e6f2be2601e3U, 0x3d8fa2b8be58ea03U, 0xbd6636c7bdc1bb91U,
  0xbeca34c4be8fa539U, 0x3dd650e8be8f34eeU, 0xbe8a36e53d9a7127U, 0xbe71bb943e72c4ffU,
  0x3d8191633db47f0aU, 0xbd4bf7db3df9ef92U, 0x3e5a34cabe483eabU, 0x3c84380e3e6018ceU,
  0x3e42a337be7099eaU, 0x3e5f6721b9ce5d0eU, 0xbea3caf1bdee7d74U, 0x3d5bf17cbdd7366aU,
  0xbc622fe2be8c1fc3U, 0xbefe7e1b3e117c94U, 0xbe4be924bef1acbeU, 0xbf060230bed294dbU,
  0x3cb1fd58befda321U, 0x3e496b65be4eb3b5U, 0xbeb976e13e12acacU, 0x3d5a2ce8be80cfc8U,
  0xbe7662d2bdc00bc0U, 0x3db26fd4be122e6cU, 0xbed8f3c6bed800faU, 0x3de4d6203e4f97a2U,
  0xbe172958beec788aU, 0xbe843c34be8bb67dU, 0xbcb5be703e48e599U, 0x3dce708fbec1857fU,
  0xbd9940a3bea9840cU, 0x39fb1804be94a694U, 0xbe1a73703dffa329U, 0x3daaed26be183bcdU,
  0xbe0f9edf3e868d2bU, 0x3dd015da3f0c0e74U, 0xbf09cf68be05b232U, 0x3da45036be7b8a2dU,
  0x3dca2d1bbeb4048fU, 0xbe5c7f5cbe8d102cU, 0xbe9b1c50be142713U, 0x3dabf7d9bd05aa8bU,
  0xbe9643acbe8e3590U, 0xbda3a5b5bcaa78eeU, 0xbe94704d3d06ec81U, 0x3e363151bd8113e6U,
  0xbe2619e03e2a6da9U, 0x3dceabab3f04860bU, 0x3e6e86c6bd568735U, 0xba66f7093d5b2670U,
  0x3eb7f96f3e9daaa4U, 0xbef9900fbe3b5bbaU, 0x3c3d612ebbfa388aU, 0xbe46708fbe6cd78dU,
  0x3dcc932dbcfae6efU, 0x3e1883c9be9e3444U, 0xbed6a4af3da57650U, 0xbe655665be11d150U,
  0x3d9e624a3e2df7eeU, 0xbdaeb383be515f7fU, 0x3dbb3cd6bec3b2c8U, 0x3ebc7f10bd87f0a8U,
  0xbd317b2a3dd47dc8U, 0xbdf951ab3dc4dea1U, 0xbcc799a73e79ca5dU, 0xbcdb9d8abe562ce3U,
  0x3e088b353dd0e891U, 0xbe4a1d3a3da00c57U, 0x3e11459fbe61e76eU, 0xbe3a4421be9bb923U,
  0x3dc3986c3c743beeU, 0xbe77546d3de3e9cdU, 0xbea05d793c5047c5U, 0x3d5014213e0c7813U,
  0xbee8b3f3be611c0aU, 0xbc2dcaff3ea11e36U, 0xbccd29d0be649dc0U, 0xbecebe02be9fd419U,
  0xbe1a2dc93ce4a75bU, 0xbeb27ebbbd8b90c8U, 0xbaca75833c0cbab3U, 0xbe9bb271be8faa93U,
  0xbd3b00a9bd64bdeeU, 0x3b419d9abea117c9U, 0xbe38a396bdb6bc3aU, 0xbd5c8d4e3ed0c522U,
  0x3cf992e13e42df19U, 0x3e098c743e13deb4U, 0x3d031557be2e2cddU, 0x3bb8d489bdee3238U,
  0xbe777070bea53a83U, 0x3e03a37cbd3c96b8U, 0xbe1142debcd53834U, 0x3d0c58f13e985b25U,
  0xbe4c6f03be8dbf9bU, 0xbea72eb7bcade479U, 0xbe947abdbe8a2ac6U, 0x3af897983e082656U,
  0xbe773caf3e0c793dU, 0xbe813988be991fa2U, 0xbe296abd3d8ec852U, 0x3cf2b8ff3e307858U,
  0xbea5e853be7d15c7U, 0xbd008d0bbe8e5540U, 0xbdd5ddaebdb95333U, 0x3d2773aabe3bad37U,
  0xbdaf878a3e9110c9U, 0x3e38b14bbed37e3bU, 0xbcb51bb83df30603U, 0xbd6bddfa3d005f18U,
  0x3db764243d23b790U, 0x3dbbe3963d09fddfU, 0xbe3247343cb79fc8U, 0x3e65c8f03ea428b9U,
  0xbec864de3c7f8163U, 0x3e9eae1a3e75bc64U, 0xbe4f49e83db0901fU, 0xbd8dc9d6bef9c80bU,
  0x3eddf7f6bc03a2a8U, 0xbeb56cbdbe70852cU, 0xbe67bd38be633784U, 0xbd9caa46bdabc51eU,
  0xbb7885093d80bb03U, 0x3eca1eb73e8afe5dU, 0xbe9f6b69bd1f6af3U, 0xbe05ae003e1921a7U,
  0xbdd0ce2ebddffb71U, 0xbe2c6526bdc7fd5eU, 0x3e46d016bcfeb6ecU, 0xbd954e93bd943929U,
  0xbe8576453e24fbb7U, 0xbedbbe69bd97e5a8U, 0xbed4f29ebe892d22U, 0x3e53149cbe7274e8U,
  0xbe8a20c5bee6572bU, 0x3c417afa3e1b29caU, 0xbe051cd4bd6cd5a5U, 0x3ad29617bf0e3c41U,
  0xbe653cf7be6e5802U, 0x3dddad09be199314U, 0x3b942f17be09f0ffU, 0x3ea5b11ebe7b0747U,
  0x3dcac717be57ebc9U, 0xbdae98c2be875cd0U, 0x3e608d86bedd038aU, 0xbd64d8a6bc8044acU,
  0xbda89023bd555d40U, 0xbd6766f8bdbb8cf6U, 0x3dcc6a603d14bc4dU, 0x3dc1b902beab25feU,
  0xbdb17567be0ef403U, 0x3c9ee6a43d9e3a9fU, 0xbe996271be0330faU, 0xbdbf10e3be422a92U,
  0xbc9e7aa2be82825bU, 0x3e76db563e0c1e99U, 0xbe42495c3e898895U, 0x3dff3764bc838417U,
  0x3e624e903e3de771U, 0x3e5b35edbdc626aeU, 0x3e5b88693e851162U, 0xbdbf53e03e82fbd7U,
  0x3e9b14f93cd9c25cU, 0x3de461b4bdb4aae4U, 0xbdd1bed33ebfec63U, 0x3e6894e7be63c43bU,
  0x3ca10ac03df6c9c9U, 0x3e5a5b6d3e6a69ddU, 0x3e654be73e0ebc3aU, 0x3e0825993e8a65d8U,
  0x3e67aaea3e7c0c35U, 0xbcbba8f93d1b4e60U, 0x3ec27fa23d74d076U, 0xbeb21c363e51d82eU,
  0x3cf5bfa43d51b568U, 0x3da6eccbbe494bf3U, 0xbe8f6fe33e87e264U, 0xbd5744c7bc0fc381U,
  0x3e04d77f3d276b9bU, 0x3de94e1ebec8a970U, 0xbda949f63da84ccaU, 0xbd0d05d8bda618f0U,
  0x3ecf93c9beb697a6U, 0x3cbc94393ebc62faU, 0x3ef9d7e8b96457daU, 0xbd9e6fdc3d4510f4U,
  0xbe19a7433eb33b5eU, 0x3e07c9933d30207bU, 0x3df536303dfacabfU, 0x3d1e7b553e04db5cU,
  0x3e0d663c3f0fd065U, 0x3e0d9ebe3d9886b0U, 0x3ef3f4c53e0e0d41U, 0xbea15d043e2dabe9U,
  0xbe7293ac3e90c558U, 0x3e67bf3dbe8bf169U, 0x3dd28143bd0c5dd7U, 0xbd47308dbe49b0beU,
  0x3e6debe43e886a9bU, 0xb9463a6a3e8694faU, 0x3e16a1e83eacf36fU, 0x3dbce6463db72d30U,
  0x3e8b869b3ef08fa6U, 0xbd2511d23ef7df24U, 0x3d54104a3dd046deU, 0x3e9362afbe8353caU,
  0x3e6377dbbe11ee04U, 0x3dbbf3adbe1d22d1U, 0x3ec1758e3e427717U, 0x3e396020bc6f5a13U,
  0x3d3c4f583d7faff8U, 0xbc444bf13edfb4d5U, 0xbd93f0ebbce9a3baU, 0xbebd8ddc3ec78bf2U,
  0x3e426e053ed3e60eU, 0x3e7d6d25be92978eU, 0x3e66179b3df24e02U, 0xbe933b94bd8e120bU,
  0x3e4910aa3dbed25dU, 0xbe839b183ca19231U, 0x3e96ec6fbda53445U, 0xbe4e0575be67543eU,
  0x3e29a8d73d54d7c0U, 0x3e126d6f3ea83019U, 0xbde0843e3e7bdfe8U, 0x3dabf18dbe8fb98bU,
  0x3e0bf71bbd4964d2U, 0xbbc571c1bd2a3dd5U, 0x3e06d2ed3d319fb7U, 0x3e83109f3e428a8bU,
  0x3d982dec3d227727U, 0x3e8811673dbf97c9U, 0x3e227816bcc97790U, 0x3e29b1ef3ef69b42U,
  0xbd73ea4ebc76cc5bU, 0x3da36fffbea6a128U, 0x3e56f4b83ebbf0f3U, 0xbd6a2b56be4346edU,
  0x3d8ce4663c8898b7U, 0x3ec022ddbd1692d7U, 0xbe74232b3e30d2b2U, 0x3f1cefc63e1cd6c7U,
  0x3e3382503df33812U, 0xbea1ee723eb7e49bU, 0x3d5c457e3e8ff47fU, 0x3dd807e3bf1e0434U,
  0xbe8752423e8bb756U, 0x3e82f8203d738278U, 0x3dd803453e840936U, 0x3e111ac33e65b7a1U,
  0xbdc4bae33d6bfe1dU, 0x3d1f201a3e076963U, 0x3dfebdb33c9ae574U, 0xbdfb8def3e76ba47U,
  0x3da60bc13eb81f90U, 0x3ef4983fbdaf6720U, 0xbd306bad3e54ff63U, 0x3e8b8254bcb22a24U,
  0x3c7432cc3db51bf0U, 0xbec45389bea53790U, 0x3e7d81b5be0a2157U, 0xbdcba4b13e2e6fceU,
  0x3d61ffb0bd3c7bb8U, 0xbd9566c1be11e522U, 0x3f0b061b3e008e41U, 0x3e6bf92bbd9e7a4bU,
  0x3e524b723b9c36f4U, 0x3e3e64e03ea74ae0U, 0xbcd5d6023e29b24cU, 0x3d4586d83e68de22U,
  0xbeb89ba73e6d324fU, 0x3d6827763e183622U, 0x3f2625d3be58b368U, 0xbe95e1703f1536e3U,
  0x3eb754a43e0d5b44U, 0x3ebb3e87be52fad5U, 0x3e56de5e3e9d9d15U, 0xbe1329513e8c6e8dU,
  0x3c1c448fbd015a0eU, 0x3e736203bd735467U, 0x3dd6664a3ecd1a12U, 0xbc8ba629be6d6d43U,
  0xbd9cc46a3e92a422U, 0xbdb9c354be949eecU, 0x3e92fd2a3d3c98f1U, 0xbd29a4eabe853a26U,
  0xbe8ec4e13e15ebc0U, 0xbea8ecea3ca63079U, 0x3de59660be373f10U, 0x3cea81a2bd5108d4U,
  0x3d3617373e75959dU, 0xbe07aea4bdc98eadU, 0x3eca5f4cbdefe897U, 0xbd2601583e982b02U,
  0x3e53b6c43de047feU, 0xbde3a20bbce09ee1U, 0xbed7712e3e7739b0U, 0x3e4424333e6fb7c9U,
  0xbd8155afbdd6300dU, 0x3e60675fbe919f66U, 0xbdffcd3f3ddc3efdU, 0x3d9b0f123e91e448U,
  0x3ed885063e031858U, 0x3e115e823e254b86U, 0x3d78a3a93e7d53d0U, 0x3e59d2d2befb2f28U,
  0x3ce5cc3dbd06a1daU, 0xbe23d33abd26b65fU, 0xbd5960883eb41554U, 0x3e80f43abd58f5ddU,
  0x3e8027da3e13a74fU, 0x3eeba96f3d92e08fU, 0x3dd9d21dbd55d131U, 0xbe8f08a43ea939afU,
  0xbdb31f1e3d43f070U, 0x3bd05a60be8fdc53U, 0xbdc821f5bc6f57e6U, 0x3e134cbb3cefc7bbU,
  0xbc9e44a9be9138acU, 0xbe573f6dbea53928U, 0xbdff835a3e48b771U, 0xbe19369a3da9e951U,
  0xbbad3a8abe62821fU, 0x3d7c17ab3f0e7865U, 0x3dcfdfd73c2b3c79U, 0x3db0bf0dbd93605bU,
  0xbed95a0d3dd5b54eU, 0x3da15246be14dfafU, 0x3d2312f5bc8b2c49U, 0x3e8b4f19bdacc6b2U,
  0x3de01118bc9ac6dbU, 0xbd2ad715bd9361e0U, 0x3eaf4f5abc8433caU, 0xbd4ad27f3cd58e62U,
  0x3ce1f3c73ee9b3d6U, 0x3e45946dbe1832bcU, 0x3e2ba25f3e488bb4U, 0x3dff629d3d4f3895U,
  0xbb7bf4833f0a4a41U, 0xbcddf8463ed00209U, 0x3e08169bbc7987f0U, 0xbd8acd22bdc94e70U,
  0xbc271cf93ba562e9U, 0xbe1e8fc23e5671a6U, 0x3e4ecf7f3e55541dU, 0x3df60faabf1923f0U,
  0xbe21a176bdd541e5U, 0x3daf52a43d4f54a1U, 0x3e779a9a3ed7ac74U, 0xbe4dd70b3dc7c2aeU,
  0xbe252f193ed90c86U, 0xbd592cb93e52b754U, 0xbe53e4593e5849faU, 0xbe43f6d4bc0c1377U,
  0x3cd902f63e2d6a02U, 0x3e1f2217be82f0c4U, 0x3eaadf5a3c3618afU, 0x3db829f1be6b994aU,
  0x3e824de23dd991faU, 0xbe835365be7a0030U, 0x3f05c036bcfe217cU, 0xbe747b413e856abfU,
  0xbd8d8cdfbee4417aU, 0x3e2eda943db51a28U, 0x3e1217723e35ec05U, 0x3e5a3716be3fa110U,
  0x3cf0b5343c890470U, 0x3dad77cc3d2fd291U, 0xbdad0e1a3e653c53U, 0x3e5753693e829acdU,
  0x3e272b83bdc8626eU, 0x3d53bb453f395ec4U, 0x3ebf572dbe77bc23U, 0xbe08eb1d3e517e96U,
  0x3ecf2d5b3e5fc156U, 0x3e946762be49ef40U, 0x3d30e8013e8c2376U, 0x3e9839153e960f96U,
  0x3e81df753eb8046eU, 0x3df42eb93d27b1a8U, 0x3ccb1ad63e83862cU, 0xbeb8e05a3e17eb52U,
  0x3e93d4013e6b3167U, 0xbdec34fa3e4540e9U, 0x3ed146693e9e2fedU, 0x3e277893be5aebb6U,
  0xbcf0a2f93db6ce9eU, 0x3e493e713d32a2cdU, 0xbc188cf7be061101U, 0x3e9b98973e6c72b2U,
  0xbcec9dfb3ef6a6c5U, 0x3ddec6cb3eb0b486U, 0xbd5006193e301a41U, 0xbec78fd4bd85191aU,
  0x3e117e953e590057U, 0x3ec74a60beb84239U, 0xbcacdfac3e3afcadU, 0x3d09f61e3d0c672cU,
  0x3e5827873ddfb689U, 0xbd2b616ebe9865e8U, 0x3e876a80bda75629U, 0xbe5f9a243ed27133U,
  0x3e0996033e1431f9U, 0x3c6bf01a3c2835e5U, 0x3d308729b9865458U, 0x3d44b9f7be4c849dU,
  0xbe2fa84f3e007d3fU, 0x3ee16ce23e8029bdU, 0x3dda1bd63dfc110cU, 0xbe04356dbdec81dbU,
  0x3e038fec3d2d3f9bU, 0x3e25324a3e31ad84U, 0x3ed53d4cbdea82a6U, 0xbe7fcd333c8f4190U,
  0x3e91242e3e845be7U, 0x3e32efd3be99cdfaU, 0xbd4faf343e690b7dU, 0xbda313bebdf314a4U,
  0xbb2a2bee3c61c588U, 0xbdccc1b93dda3ce6U, 0x3e710a763e86f4acU, 0x3e08c077bec9753dU,
  0x3eea3ad6be87e18fU, 0xbe3e9b94be34a8a0U, 0x3e94d420bddc8eeaU, 0x3e247249bea8e565U,
  0xbe62e9dc3de636fbU, 0x3e2a20ff3cd4d8d6U, 0x3e5822c4bd3e12d1U, 0x3dc7e079beb571d2U,
  0xbb6440743d5130afU, 0x3dfa9c8ebe80faf9U, 0x3ed5b181bd120c09U, 0xbe20bb583e88228aU,
  0x3e004fcd3de336eeU, 0xbb842ec33cbd48eaU, 0xbcaab15dbdffcd47U, 0x3c6e3523bda22d85U,
  0x3da1af5a3e7d2534U, 0xbd7e4be9be8877e1U, 0xbb7efe5ebc8b062dU, 0xbe40a19bbe5eec60U,
  0x3e9e5def3d36ad46U, 0xbcab35163e186094U, 0x3e1392013f0aed72U, 0x3e3ec547bdd68506U,
  0xbdec9f833dc6587eU, 0x3e98646e3dca223dU, 0x3dbfe2303f1c002eU, 0x3e61c0863dddd7a0U,
  0xbe1e81433e84371dU, 0x3da556df3c02bfdbU, 0x3eb6fa583d964cdfU, 0xbe4187003ed21e4eU,
  0x3e3ac2203db4a615U, 0x3d6eb82ebec8057bU, 0x3e778ce33dc02f2eU, 0xbd6f378b3e11b5c9U,
  0x3e870026bd5fd490U, 0x3cd35fddbe1251cbU, 0x3f1222d03e1c1b88U, 0x3e75a94f3cf2db93U,
  0x3e4fac2cbe6b83d5U, 0xbe9adaa53effc81eU, 0x3d1d0d943e8b6b86U, 0x3e72c78cbe8aee40U,
  0x3e8221b8bca8c53eU, 0x3e833f9a3cebb417U, 0x3d301b8f3c4cdde8U, 0xbe0b40fc3db3158dU,
  0x3e35386d3c498be4U, 0xbc8b63553dca4c4aU, 0x3ca3fc23be7bc9b4U, 0xbdadcc6a3dc7b6ccU,
  0x3ebbe9103e95bdf8U, 0x3e941018bd9d4487U, 0x3e84f894bc0693b4U, 0xbe51a5a0bd6bdc7eU,
  0x3e6433c13e937e03U, 0x3cb606f63d8e5ca6U, 0x3e5da1a03cc494dbU, 0x3e507131bdff6959U,
  0xbdbf09eabeb0cfd8U, 0x3e6f6d053e2fe699U, 0x3d942d2f3e8a5f4bU, 0x3d0b240fbe620419U,
  0x3e42b3aebcc062a4U, 0xbeae6eed3d4319d3U, 0x3e61e1fa3e021294U, 0x3e9a05e83db247f2U,
  0xbe65d6353f0f6a74U, 0x3e6026f8be9e45c4U, 0x3dc7e2f63e814d2fU, 0x3e0e3df83e4c8a81U,
  0x3dab42353eb9bcf8U, 0xbdf478d9beab0962U, 0x3e9e56be3ed8c6c6U, 0x3e36b477bd8e04d4U,
  0x3e1da53b3e219d22U, 0x3b4a268e3e6354c7U, 0x3e0f119e3d68213cU, 0x3e436bdbbdb7dc23U,
  0xbe994c62be4815d8U, 0xbdd43dd73f17cdd7U, 0xbdabc427be244353U, 0x3e626ddcbd92ec33U,
  0x3e193ce93e30dbdfU, 0xbd95275ebb9505b9U, 0x3eb4b61b3e9ab99dU, 0x3da2defdbe4a5edeU,
  0x3e7a7d573e63a564U, 0x3d8139fcbd8f4e2aU, 0x3de8fa6cbe9b2248U, 0xbdbbb2c0bd011395U,
  0x3e8195ec3e14c7d7U, 0x3ef191893d7cda0bU, 0x3ccdacd83ed4c9adU, 0x3d257b58bcec511cU,
  0x3e58c4b83e9b36b4U, 0x3d503e233e2181b6U, 0x3e341bb03f53d6f0U, 0x3e0e3b583dad25d7U,
  0x3e7934893d351b25U, 0xbe9564f03e17ff82U, 0x3e6414c13f04db65U, 0xbd9b3e1ebf09e937U,
  0xbea03a87bde41593U, 0xbe1dc3d63e05da0eU, 0x3e77109ebe3fa671U, 0xbed99f80be061ca9U,
  0xbc7bd7d3bc96b9dcU, 0x3df7cf573e186b34U, 0xbea10a5d3d1710c2U, 0x3c71d5503e48c210U,
  0xbe8a0a92be024f68U, 0x3d4b2ab63aba6afeU, 0xbda451843e6bb20bU, 0x3d53e19bbca021d8U,
  0x3da906083d7d9e07U, 0xbdc53a1cbe2fcb14U, 0x3e7a3359bea4b4f0U, 0x3ef3f7acbe71847dU,
  0xbd72e0e8bea01dd9U, 0x3c1b7fd7bd2074dfU, 0xbeb1122abe8eb22dU, 0x3e5a5571bd4821a8U,
  0x3b261fd73daf410aU, 0xbea76e90be02e11aU, 0x3d272128bde589d3U, 0x3e95a2cfbbbd7d82U,
  0xbe09a07c3db5e275U, 0x3e4653be3e17eaa4U, 0xbe074810beaa9aa7U, 0x3e905f0a3dc2fec1U,
  0x3d8fb705bea8b119U, 0x3e244a813e7731a7U, 0xbeb04014be727c48U, 0xbe4c3bb93b503343U,
  0xbcb1896cbee0d0c0U, 0xbd47bfeebf01b5adU, 0x3ed7e4a1bdd1d9ddU, 0xbf0346123dd57d11U,
  0xbb3e222c3e9e5517U, 0x3e9f54f7be01063aU, 0xbda128d9be24c45eU, 0x3c0f02e23c61cab3U,
  0xbe2d46f6bdc952e0U, 0xbd82802a3e01eb94U, 0x3e2a0cf73e926dd9U, 0xbf0bea1cbbc59760U,
  0x3de91c993c5f9026U, 0xbceb7c63bd84d09dU, 0xbe598c8ebeb515f1U, 0xbd67c9d23dbfcbc6U,
  0xbe814e853e38f166U, 0x3ed170d33da8f30dU, 0xbe9540103ec74372U, 0xbe7ac539bf093a95U,
  0x3ab1f2d43d9d41f4U, 0xbe20bf41be9cb13aU, 0x3e58522abe74a98cU, 0x3e1bbff4be8aac21U,
  0x3e11b7adbdb0612eU, 0xbdc85b953d1267c7U, 0xbca789df3de479e7U, 0xbe373bb3be5f89b5U,
  0xbe7f9dcd3e25d606U, 0x3e3c901e3d8e55c4U, 0x3e6cfa843e3e58c0U, 0xbe18e748bda1de65U,
  0x3da1d87c3e46911cU, 0xbbd7aca63d56da08U, 0x3be2affabe4804fcU, 0x3ea536303e27707bU,
  0xbd6ca40ebdd0eb48U, 0x3d62ea31bda2fe53U, 0xbede0da1bdfec61fU, 0x3e86d5ccbe306b7dU,
  0x3e90c8543e385a20U, 0xbe3e3a33bea77a50U, 0x3b358a573db6ff49U, 0x383713993ea08690U,
  0x3e421ba0be8c7775U, 0x3ec00371bdd643acU, 0xbe69914a3e112fbfU, 0xbe678b763ed95279U,
  0xbd1cb58cbddb0439U, 0x3dd3f13c3e792d40U, 0x3e27caabbee052e9U, 0x3e641e853eb8ea9dU,
  0xbe5d5cac3de2b753U, 0xbeaa878ebe90bacfU, 0xbde187b7bc405248U, 0x3d0290853e1158feU,
  0xbd1bed2cbd85dd3cU, 0x3d2f6f423eb01aaeU, 0xbe9aedd1bd773d64U, 0x3e1c44e4be9f545cU,
  0x3cc2ebe8bd425621U, 0x3e2c5178bdfe9de6U, 0xbe8e6da7bd80c981U, 0x3e8248e33e0b9a11U,
  0xbe09c6d33dc47953U, 0x3e78ee20be3754f4U, 0x3d9c18f7bf1defe8U, 0x3d792bb83e9c5799U,
  0xbe59051b3dc037f3U, 0x3d9b3a76bd3dcae9U, 0x3c991e3f3e6deaf1U, 0x3e9a7875bd76e30fU,
  0x3ecfd73cbe4db175U, 0x3e94786abdbd0eb1U, 0x3cdfe3c1be8acedfU, 0x3e41f0c23d9f8ed2U,
  0x3e55ed5fbdf89cfbU, 0x3e7c42fc3df526e4U, 0xbeb3327fbd140856U, 0xbeae123bbebe5a9bU,
  0x3efa74d93dc8e95aU, 0xbe1e49a9bed42f33U, 0xbe7644783e09687aU, 0x3eacb8aebe89a55bU,
  0x3d32520c3dab811aU, 0xbdfb72033df13315U, 0x3e3fcc463d667683U, 0xbc4b1e683e11ca8eU,
  0xbe584e333e417e50U, 0x3d076c4e3e4e461eU, 0x3e4bbcd3beac4b44U, 0xbda1b4af3e14a859U,
  0x3e611ed33d9d97dbU, 0xbe9333793c767b65U, 0x3d0dc98ebe2ecc0cU, 0xbf04f0bfbda183efU,
  0xbe176b1a3e375494U, 0x3d66ef08bb2c9696U, 0xbda178debe232014U, 0xbe995a3dbe91c553U,
  0x3dcef0a5bd1d16efU, 0xbd1379ebbe52d6c6U, 0xbd48e31dbe37e3b6U, 0x3e14c28bbe435016U,
  0xbe5a3da63de3469cU, 0xbd8a36763dfa8056U, 0xbcf1cc1cbeb1dbbbU, 0x3c81c2f2bd5334fbU,
  0x3d6d0559beb29883U, 0xbe9c032fbe220db2U, 0x3dc05a7bbe71c82eU, 0x3dba40b13d87e469U,
  0xbe0197c1be1be66cU, 0xbcaec12dbd78fa55U, 0xbe1cebbd3d8aeac4U, 0xbdbda44abe84d861U,
  0xbec28530be53db94U, 0xbe8fcd883e382da4U, 0xbe80aac5bee08010U, 0xbd615a04be2506c4U,
  0x3e8ae4c5be18f35eU, 0xbe7abda1be8ce97aU, 0x3df9d9a9bed4125dU, 0xbec083dcbe81fb20U,
  0xbe4665a3bec2935fU, 0x3e0a8d313cca06f1U, 0x3dacb43abee17926U, 0xbd8941223de8ae2cU,
  0xbea9cf9b3e57bb3bU, 0xbe7b7edabd6e4d80U, 0xbd3b8438be716f23U, 0xbecee389be7b98e2U,
  0xbe7b73af3d9ae556U, 0xbeede7fcbf09a847U, 0xbd44e353be0e9ab3U, 0xbda45a9cbe87d9d9U,
  0xbeeb5415bc614a67U, 0x3d69cca93dc0b60eU, 0xbd99eae0bdeb495fU, 0x3e2b62063e2b13f2U,
  0xbe2cf395bcacdea2U, 0x3e9d1ca73e1054caU, 0x3e1972023e6663a9U, 0xbe4c28603d943ad7U,
  0xbdaa4d56bde89615U, 0xbdd05da6bee68eb3U, 0x3e1bff35bdf39918U, 0x3e9fdbb9bd4729ccU,
  0x3dbe85933de66c32U, 0x3e693c353d81e662U, 0xbdbe3fc93d926148U, 0xbe9c510abdd1b1c3U,
  0x3d624f7f3dad9772U, 0x3e7a95933dedbfdfU, 0xbe4e61ee3e98232cU, 0xbe30a0cebe56f2a4U,
  0xbe620850bd5bcdafU, 0x3dd5937abe6feb0eU, 0xbd9800f7be755a7aU, 0xbf2ad703be34d9c6U,
  0x3d64321e3e3ef4b1U, 0xbefcf49cbe32b268U, 0x3e8dc513be1411bcU, 0x3d811bc0bde22e4bU,
  0xbdea37df3d93bcbbU, 0x3dd878983d66f280U, 0xbc0e5d44bdd652e5U, 0xbdd2f87b3e30e05dU,
  0xbe9a1222be9b5c2fU, 0x3bb848093e04959eU, 0x3e834554beaac5c4U, 0xbb43c3b13e48d7d1U,
  0x3cecd70dbe1ecbfdU, 0xbd7ca693be8ffc6fU, 0xbe24c41dbe8a3965U, 0x3d7bfc46bf0a23cdU,
  0xbf0cd13ebea251c5U, 0xbe9368b63e91fb10U, 0x3c111c09beb8fca9U, 0xbdd96c543e35d696U,
  0xbe7ca057bdbb238bU, 0x3e765273beb83782U, 0xbe8d9f7dbe404451U, 0x3d2f25bbbd59b66aU,
  0xbdd22edebda2d892U, 0x3d98a6b7bd0c327bU, 0xbd944877be41ab55U, 0xbe99bcd93e139d97U,
  0xbe81a2d53e8edd2bU, 0xbd52c4f73e7f656fU, 0xbe1cee8e3d4fe23fU, 0xbee818edbd8ed38aU,
  0xbd9c8ad63cdd59edU, 0xbe1bb001be0af770U, 0x3b9adfabbf1ead4bU, 0xbd85b97b3d851984U,
  0x3e01add5be50cd4dU, 0x3e8bd43abe43726aU, 0xbc9fa17b3f0c9b07U, 0x3e02f71fbdefc99eU,
  0x3deeaabb3e06eef6U, 0x3cd4f8e5be94d49bU, 0x3dcd6555be24526eU, 0x3e9829a9be3d1f97U,
  0x3de8877e3e413aa5U, 0xbda9b63cbd0c4df8U, 0x3ea4d34f3df224fcU, 0x3e85a07cbd9b47eeU,
  0xbeade80c3d9f65efU, 0xbe72b279bdd0e23dU, 0x3e90ca853d6f1210U, 0xbe288fc7be563c17U,
  0xbd32ad92bd826b6fU, 0x3ea5539ebe96feb9U, 0xbe9e4830bd1db57cU, 0x3e4a44153d6d5dc7U,
  0x3e23dedfbea35551U, 0xbe5eae283e2f50b4U, 0x3ed10003bea825baU, 0xbde1d783be1e2b42U,
  0x3e069c17bf12cf6dU, 0x3e4d822cbf1ed7d5U, 0xbe290e71bda635acU, 0x3d36770d3dc70c25U,
  0xbe1d7998bd3f4b67U, 0x3ef16bbfbeaaa88cU, 0xbec34c9bbf32b697U, 0xbeefcb023eb709b5U,
  0xbed52e29bed66a57U, 0x3a8b6d753e18f3aaU, 0xbeab6392beeb5a62U, 0xbdb217eebe5f023fU,
  0x3d7d5923be095e71U, 0xbefe3a48be3c2860U, 0xbc4f8ef4bec17ac7U, 0x3de7c291be9de88fU,
  0x3c827f7fbe56a590U, 0xbc1767d73e6a43d6U, 0xbea9b6523e704ff8U, 0x3e33bf243d83a074U,
  0xbe2315a8bccc1375U, 0xbd5a7af3bde74f4fU, 0xbc8aea193d5f57b8U, 0xbe30f2dc3d313b10U,
  0x3e20bc663e170933U, 0xbe0ce577bba1bc05U, 0xbe12cb51bd92bd72U, 0x3e520adbbcaada4eU,
  0xbea58ebebebd7768U, 0x3e3ad1ee3ded70dbU, 0x3dbe1cfc3e725e3cU, 0xbe882bf23ea03a25U,
  0xbe259e2d3c490f28U, 0x3de246e03e244747U, 0xbe3a2d763d215345U, 0xbdb2c75f3e17b5fdU,
  0x3e1ac5a23e3ab45fU, 0x3e21618ebef81ed0U, 0x3bf1cd123d170df9U, 0xbebd502c3e8883cfU,
  0x3e8e35773e64acddU, 0x3e1ed5503ede411aU, 0x3d371bb8bda34958U, 0xbe4cf487bd0ed8d3U,
  0xbe8931863e381488U, 0x3e90665b3e8c772bU, 0xbe9da0bcbd626e32U, 0xbd8b98673cce2145U,
  0xbd93eceabec5f9a6U, 0xbf0085afbecdf021U, 0x3ee05e68bd5082c7U, 0x3d76ecbfbf3e4a64U,
  0xbf0faba3bd5d49b3U, 0xbd393eeebe56325bU, 0xbe411b323c288f4bU, 0x3ecaae4cbdde313fU,
  0xbe3cc3e5bdeb9eebU, 0xbe9f7cb13f1699a7U, 0x3cb327a5be8a8c1cU, 0xbeb6544fbed8a10cU,
  0xbda16088bea77d42U, 0xbd6283a7be3ce45eU, 0x3da97bd73c3728a4U, 0xbe2a2c3a3d25adcdU,
  0xbcdde0a3bf1d369bU, 0x3ede1e89be7e68aaU, 0xbeec158ebe3db456U, 0xbf0a84ff3ee9f164U,
  0x397965b1bea0994fU, 0xbed23aeb3e6c433cU, 0xbeb848c1be596a0bU, 0x3cac974f3e46cefeU,
  0x3e6945e33edb74bcU, 0xbe7ef361bd40660eU, 0xbe7259f0be7f0815U, 0x3ca364093ec83066U,
  0xbd801fcdbe229c9cU, 0x3e9c18e3bc71cef7U, 0xbe959ce93d12ef51U, 0xbe8844dabd80215eU,
  0x3e1df8f43db828d5U, 0xbe28eb023e47c5dbU, 0x3e3ef2203e85086eU, 0x3e8e3abe3e35229aU,
  0x3da2ab3d3e5acd22U, 0xbe935395be92c531U, 0x3c2e2196be8a6149U, 0x3e30ac30be92615cU,
  0x3e52a1ad3dfd1ad9U, 0xbf0617e4be93ba44U, 0x3e06c1fe3e7708c7U, 0x3e48ea9dbe8d495eU,
  0xbcc411133abd90c2U, 0x3d83ed2dbe944094U, 0x3e928346bd1d27cbU, 0x3e6b3ccebbcb5cd4U,
  0xbe5ee0a3bde0fc56U, 0xbda4768c3d22d766U, 0x3e8000a9bed95c96U, 0xbe336cc9beeeddabU,
  0x3e2f24d03d602772U, 0x3d910badbdd6a73dU, 0xbe07c5b63d6bbb6aU, 0x3d3782e4be353cd0U,
  0xbdb866edbe088975U, 0x3ecd6a303d034cc4U, 0xbeba3a913dbc1281U, 0xbe522c913f0220c9U,
  0xbe874c53befe161aU, 0x3e2be53ebc1abae8U, 0xbdb62c45be749c40U, 0xbe3cc60cbe0878afU,
  0x3e342caebf04e943U, 0xbee994cdbe2793c6U, 0xbe76e0b5be92c9c8U, 0x3e6e4b203d0edb13U,
  0xbe1a6d8cbab0a85fU, 0x3d7128163f2421c6U, 0xbec599963df1f223U, 0xbe25e7e7bd83fdbbU,
  0x3dce45a8be54ad6aU, 0xbd620a963e88a496U, 0x3d48a133bab5ba90U, 0xb9c8e681be0f67b5U,
  0xbe3cb688bdd35cafU, 0xbe213e6b3d05df9bU, 0xbeb78d8a3d8bf3ebU, 0x3df9f328be86f36fU,
  0xbe635271bd91464cU, 0xbda550ab3eb0c019U, 0x3e5a4e653d2ecd98U, 0x3df2ed0ebc3b6565U,
  0xbe962a36bd8e7f61U, 0x3d6a66433df4ab8aU, 0xbef8c4713e3a5999U, 0x3d8d82e5be2cedbfU,
  0x3e1169c1be00dbcfU, 0xbebbd579bdfb92c3U, 0xbe6d62f7bda2974aU, 0xbea067b63dceb739U,
  0x3e64317d3ba8f663U, 0x3e99d257be83bcd0U, 0xbe83c1c53d38e72aU, 0xbe903f0dbecb6c2fU,
  0xbe4e0ab1beab71cfU, 0x3e4a22f83ba090b7U, 0x3ba8826abe9ff9a6U, 0x3ea4eccd3df0d241U,
  0xbc06a4663bbbcaf2U, 0x3dc18113bd8667eeU, 0x3df8a8fc3e96ce0bU, 0xbe4bc5b3bea320e4U,
  0xbd09ef96bd9ea2cdU, 0xbd85821ebe66e951U, 0xbd8c27bb3cbdedd4U, 0x3e6d8eb0beb328d9U,
  0xbee5a770be4067fdU, 0xbeaed3543e2119f6U, 0x3dde8ee2bf203913U, 0xbce7fd50bdf88545U,
  0x3ddd6db2bd8c4b92U, 0xbe7114883c26dc60U, 0xbe94e730bd07a460U, 0xbd517222be1005a8U,
  0xbd69c510bf21765bU, 0xbce3f19c3e43c5c4U, 0xbed8d420be194d6cU, 0xbe3f72d33d1164afU,
  0xbeb88defbe2af5a9U, 0xbeb2107e3df1f2bdU, 0xbe6afa17be230185U, 0xbe00292abe4979abU,
  0xbe357c0c3b5f992cU, 0xbf0b99793dab8240U, 0xbe8124a6bb55464fU, 0x3ce97cbd3db4a15fU,
  0xbdeb2fcebd8f0e13U, 0x3e839c14bde3d845U, 0xbeac7c653eb4bd34U, 0xbdee55abbe405742U,
  0x3e44ee5a3e81d90eU, 0xbdee99233dba017cU, 0x3e0034133e8d9238U, 0x3d33e342bea92ebfU,
  0x3e9ec531be49745cU, 0xbb8690ffbd090fe4U, 0xbe0fcf7cbe205286U, 0x3d0f7cda3d9ba1a3U,
  0xbd08031a3c0fefc3U, 0xbdbd3c2abeab30eaU, 0x3ed5b8253e2e76abU, 0x3d32e1a8beaa0590U,
  0xbe40b5e9beb0f818U, 0x3cb9c8223d901f84U, 0xbe4442fa3d7fe1eeU, 0x3ecbed46be0e9f0cU,
  0x3d4e8c923d48adb7U, 0xbed683283e8915beU, 0xbe443735be9a83f1U, 0x3d099b343e2fa822U,
  0xbe61e125bed3ef78U, 0x3ddc1a7cbe067a07U, 0xbe753efc3e364fc5U, 0x3e2ad2dcbea763c5U,
  0xbed345d3bb81dc46U, 0xbe0658093d4b0ad9U, 0x3df2ff6dbc959818U, 0x3e87ff12bcc19815U,
  0xbe8681643d62d528U, 0xbd4bc02bbea460a5U, 0x3e769591be11a7eeU, 0x3cd3bfb2bdfa83dfU,
  0x3e36d9eabe3d6498U, 0x3de1dec63e474422U, 0xbd9b58f2be40721bU, 0x3b572990be4aaacbU,
  0xbef5c7c8bdbb0144U, 0xbe1c13ba3c5be139U, 0xbf017f06be15d3deU, 0x3cdee04cbeaa9230U,
  0x3e8d79ecbdaae993U, 0xbedf436ebee96abcU, 0x3e82d20bbebe8c34U, 0xbee99ff23d31907fU,
  0xbcddb57dbe914d40U, 0x3c3b63b13d747353U, 0xbd412959be8d4377U, 0x3d5a5eefbe0ed4b7U,
  0xbe376bef3e25d0a1U, 0xbe4c1ca8beaa8cefU, 0x3e06dc5e3e2e67c6U, 0xbef6645b3e9d2843U,
  0x3d5ba7643e49bec5U, 0x3c3b4de03e8d839fU, 0xbedb37f03e2cbfb4U, 0xbdc91ab9bf19346bU,
  0xbe97d32b3d653c49U, 0xbe9690eabc96b983U, 0xbdcef57e3dad9615U, 0xbe7b25c1bc0bbf55U,
  0x3da976853caee5e1U, 0xbe12c63dbea75de7U, 0xbe228d5d3ddac316U, 0x3daa1ab83c28f688U,
  0xbefd0c40bcda0199U, 0x3e9b60fcbe1703d6U, 0xbddd0c703de6a3b1U, 0xbdad541a3ea8aaf3U,
  0xbd8320db3deac3c1U, 0x3de2099ebd795acaU, 0xbd2569c6baae4432U, 0xbe30163a3dd026e3U,
  0x3e7c13df3d7a1e0aU, 0xbe1e59793dc4a80cU, 0x3d6488a1bd255f31U, 0xbde02443bd90a82dU,
  0xbd6fb26abde268b7U, 0x3dfc38f23d36f5b3U, 0xbee213143e5e93a7U, 0xbdfd2b7dbe19cf48U,
  0x3ed48ed53e3dbbe2U, 0xbdd282e2bdcf0d37U, 0x3d9d81633da5889dU, 0xbdeb8fedbdae379fU,
  0xbd8aa53dbe57e3a0U, 0x3ea09884bdc28a96U, 0x3df9a8f8be78ad62U, 0x3e4d79033e64e3c1U,
  0xbc66e412bea9b5b1U, 0xbd8a1472bdf7f728U, 0x3e3ecda43db255aeU, 0xbd8bb8f3be1c102aU,
  0x3e12c8a83de619e6U, 0x3d4c66273e270629U, 0xbda10aacbe4c2650U, 0x3dd33d143ca551f3U,
  0xbd2dc8efbdd3315fU, 0xbea4f1653dc35c0eU, 0xbed2cec4bf05d3beU, 0xbe53f427beac688fU,
  0xbe6419c7bf2cf961U, 0x3dc2286f3d803698U, 0xbdd459b1be1bf485U, 0xbf23e739be0b123aU,
  0xbebbf69cbf41ac02U, 0x3e654c40bedb0c52U, 0xbea937583c1916e6U, 0xbda837e03eddbefaU,
  0x3e1c5bbfbd2deb7bU, 0xbe281784bc3ab1ebU, 0x3ddb6964bde516adU, 0xbe7940a73c075ca1U,
  0xbd37bac33e8c1b74U, 0xbe0314223d1a63c8U, 0xbe18a240be11c769U, 0x3e2bf8bcbe9e97a0U,
  0xbe65f5f7be298133U, 0xbe0eb1d23e9ec248U, 0xbec621e8be2f3ec8U, 0xbe88f12dbebd1ab1U,
  0x3dde1150be4a00baU, 0xbded6c27bf1dfd22U, 0x3db22754bdec0ed1U, 0x3e7c4bc6bec32506U,
  0x3e8fda69bea90a67U, 0xbe74b9d2bc27d3baU, 0xbc1eda03beb6982eU, 0xbe93b5c7bc86f70aU,
  0xbed2b73f3e491747U, 0x3d01cc0c3db42f58U, 0xbe34d8a8be6f72e1U, 0xbe5cc1fb3c72f8eaU,
  0xbe8d3ec03e0f744eU, 0x3dc1126dbe213629U, 0xbe92e7ebbe47c3f2U, 0xbe9724c13e95b993U,
  0x3eb980ca3aa6d97bU, 0x3eccdc0bbe491dc1U, 0x3db1f1ef3e69ca09U, 0xbe91c0b4bec7dfe7U,
  0x3e83baaa3e275b86U, 0xbea9aef2be2015d9U, 0xbd9d17d6bf387bb5U, 0x3d5b30cdbe83f2a2U,
  0xbe819814bd3434f5U, 0xbe186b263db741cbU, 0xbe949401be0e66a8U, 0xbe2a9440bc90899aU,
  0x3c844539be982b9bU, 0x3dd75bba3c07bc23U, 0x3e4f8606bd9b0d92U, 0xbcc73b59be53c4caU,
  0xbd43014bbeb9cea9U, 0xbd9048ca3cf70a40U, 0xbe666fafbe59a9d3U, 0x3eaec058be8fe496U,
  0xbeaf7f6fbe6e4ee2U, 0xbb9561f23ee727c5U, 0x3e050403bec09164U, 0xbec8f7aabebff210U,
  0x3e2de4693e11bc3aU, 0xbea848bfbf2dc7deU, 0xbed427063e09ed3fU, 0x3de07e7fbe398015U,
  0x3b32ebf7bdbaa1feU, 0xbc7b0d25be058976U, 0x3c67d7bdbe384dd8U, 0x3c3a3fa93edbe30cU,
  0xbdb9eb06be814fdfU, 0x3e607065be9e8c6aU, 0xbd86bf1bbf141b8fU, 0xbdaf9daabe815f02U,
  0x3e40f1b4bca61d57U, 0x3e11f2a7be383ec7U, 0xbc2c626dbf155503U, 0xbdcb17e0be8193a8U,
  0x3d14fdf63db0f9ccU, 0x3e21322ebe84bc74U, 0xbef5c107bd952e74U, 0x3e9747093dfd84bdU,
  0xbdc8e2693e40ce5fU, 0xbec567acbda3a72aU, 0x3f2549033dbda685U, 0xbd5ec648be7b9abfU,
  0x3dd3b6db3d7d8cf9U, 0xbf485084bce71d52U, 0x3e3674ba3ca22babU, 0x3f052d79bf7770a6U,
  0xbe7e25e43ef8a80bU, 0xbc94f34f3d92bddfU, 0x3ec169a43e29a813U, 0xbeae6f17be0b2cf6U,
  0x3e08e52fbdc70795U, 0x3e49eeafbebc8078U, 0xbd2714033d64bb2cU, 0xbdf374b33df20693U,
  0xbe4ddc6abdffa82bU, 0x3c9d3a6bbe871d8fU, 0x3ddef0bdbe28b3eeU, 0xbd1ede7abd8ff7d6U,
  0x3efed953be807787U, 0xbd03b623bf1fcfa4U, 0xbed0e966bdfdd568U, 0xbd4105a2bd46509cU,
  0xbe2a0e90bccd6ea7U, 0x3f26a353be3fa965U, 0xbd778f82bea7d570U, 0xbf0cb8813db319f2U,
  0x3d6b8b54be736828U, 0xbe768120be430d2aU, 0xbdd327b53d2ded56U, 0xbd28df42be422a79U,
  0xbdcdabc5bd0ac9ddU, 0xbf09e650bd305853U, 0xbf019391beb1088dU, 0x3e3d07c8bef33ab1U,
  0xbe41ef0abe15b05fU, 0xbe964aac3ecb7b8bU, 0xbd9351dbbe9edec8U, 0xbe710da8beb8a160U,
  0xbd4689e93cae605aU, 0xbdfc6e753e971036U, 0xbd29cd883ea5e00fU, 0xbe5a6ac0be94d087U,
  0xbe5411353db3d8b0U, 0xbbf45a18bce12b8dU, 0xbeb96b4abdf4b212U, 0x3e333b7f3e4f862fU,
  0xbe5a4f6a3e6c90ddU, 0xbe642f4c3e0e6463U, 0x3cc7398e3d35a0abU, 0xbe462c7e3bef1f28U,
  0x3c029f033e76e7f9U, 0x3e2e3dfe3ed54233U, 0x3ca00d5b3d762933U, 0x3d857a593e6c82f5U,
  0xbe30da853e69af82U, 0xbe947330be1a52a1U, 0xbd89e711be7a99ffU, 0xba959d7dbe869554U,
  0x3d397639beefe469U, 0xbdb137b43d15d7b0U, 0x3e98b446bdd29600U, 0xbcc55eccbd28dac9U,
  0xbe0de218bc057e5eU, 0x3e70822bbe088a8aU, 0xbee27bd0bca081c6U, 0x3d1d0906bd8ba57fU,
  0xbe9c24be3e0361b4U, 0xbea3dc2dbdf61978U, 0x3df6a72bbe0e0539U, 0xbed116153db56226U,
  0xbee8c9a5be25e7fbU, 0xbb90ff60bd5b04c9U, 0xbe9cb96abe03c737U, 0x3d7f7e52be3fe423U,
  0xbe80d7abbebf29acU, 0xbe32c5893e4bdfb6U, 0x3e41054dbea792d4U, 0x3e4f5217bce31760U,
  0x3cd8b101be1432caU, 0xbddb1a18bd9313c8U, 0x3e2471d6be045f56U, 0x3caa3805bac8a0c3U,
  0xbe0b6c77bcdbfbf5U, 0x3dc47a2fbeef2433U, 0xbea83a2a3d6bc19fU, 0xbaee747f3ea68849U,
  0xbdec78c2beb80f68U, 0xbc1937fd3e2af8dcU, 0xbd8607bf3df95033U, 0xbe0788afbe19434dU,
  0xbc8411b63d9e0371U, 0x3e43fb533d25e705U, 0x3d049455bd658355U, 0xbdb5d2d53e510c92U,
  0xbe2e5c88be33f804U, 0xbda2f4863e92c763U, 0xbe922f8cbdd741fdU, 0xbeb234a1be99d824U,
  0x3e89799d3e00739dU, 0xbedd87e3be488855U, 0xbda3f6fc3d3cecc4U, 0x3d9599063d8e6053U,
  0xbeb08e04be651911U, 0x3e8751a73cfa232eU, 0xbe1589e23d65db40U, 0x3df3cd9b3e3d0fdbU,
  0xbe4a4d26bdcd047bU, 0x3e1010373c9dbd5dU, 0x3e82404a3e8d0a7bU, 0xbddc6cf5be5e41d9U,
  0xbe741f88be9a389fU, 0x3e15ffadbdc61e82U, 0xbe09cf5c3e3db710U, 0x3e613a013e8c016aU,
  0x3e4469b3bd3507c0U, 0x3d14a15fbd099b72U, 0xbee27258be79fa64U, 0xbe18073dbd6243bcU,
  0x3ea1b96a3cecff63U, 0xbda2e204bd535001U, 0x3addd473bee282b6U, 0xbde6198cbe02a26cU,
  0xbe73950cbeb2200bU, 0x3d1226873e9174e6U, 0xbe5462d2bddfa06bU, 0x3e3532263e29d781U,
  0x3e71bb073ec91582U, 0x3caa76c53e7fdd78U, 0xbe9a5a6e3dab4282U, 0xbc57a2e9bd4e1175U,
  0x3ec06a19bdc97418U, 0x3e7d319cbe34857eU, 0x3f06cd973da7d0e3U, 0xbe7eb0293e1cf130U,
  0x3e96caf0be42c6feU, 0x3945d070be0bc4f3U, 0xbb904220be748a25U, 0x3ece277e3e22ba2cU,
  0xbecad898be1edfc5U, 0x3dc614b3bd01e729U, 0xbd4018f43d9438aeU, 0x3e84f5823d80f490U,
  0x3d82ef55bcbbae11U, 0xbe8632c63e0f0c20U, 0x3e17a8f2be826097U, 0x3d8da69cbe813178U,
  0xbbdc488abe10029fU, 0x3de9705d3efe2f06U, 0xbe3cf1653dc85615U, 0x3e0cc3e43dcc21e8U,
  0xbec692cebdb6a7f9U, 0x3cae47823e2de9f8U, 0x3c9bbbf53dca1813U, 0xbec312013dbfdfe9U,
  0x3da8257b3e4f9b48U, 0xbdfacfa0bef112f1U, 0xbe20935ebb0ce483U, 0xbde7bcf03e593879U,
  0xbe41ca283e608becU, 0xbe2f499c3db29b8dU, 0xbd5ef4773e8a0411U, 0xbe484afcbe329740U,
  0x3e15f49b3e5a6931U, 0x3db42c6abe86601fU, 0xbde22865be692beaU, 0xbdb88bc13c2d1718U,
  0xbe874bd43db00528U, 0x3ebb4f043d92ec3aU, 0xbeb829a2bd547561U, 0x3e8a57cbbda79203U,
  0x3e815426be2932a6U, 0xbda2b94d3effd5b2U, 0xbd837b1a3ebf4791U, 0xbe2cc3493e1500abU,
  0x3d09df733dddac3fU, 0x3cba8acbbf1f21feU, 0x3ec9f1debe7ac673U, 0x3d08c95a3e5b839cU,
  0xbe89bbc5bd15b5e6U, 0xbe806a0c3da3d60dU, 0x3d0590663edb2b9cU, 0xbd8c8d253c71531cU,
  0x3e2ee1fc3e68433dU, 0xbede8aba3e2ff80bU, 0xbe0fafc9bddcb26eU, 0xbdde7095bf2969f2U,
  0xba7730bebecf4d51U, 0xbdcf15933e9c7382U, 0xbd98606fbee53290U, 0x3d081bab3e5a39fdU,
  0xbd859fefbd330df4U, 0xbde28c463e30bd3fU, 0x3e82a2d6be3e9848U, 0xbe9ae4713e699acdU,
  0x3d954098bdc9fbccU, 0x3e87629ebe4ab886U, 0x3e2ee1d13e0c2e3cU, 0xbf0013adbdff9846U,
  0xbed11b1abc6db1d7U, 0xbdd2794dbcf0bbe9U, 0x3b835c5e3e112680U, 0x3d613661be160310U,
  0x3ebef469bd6b84f0U, 0xbe9e1c70bdf64bf2U, 0xbd2cd9283d025a36U, 0xbd19187e3e3d69f6U,
  0xbe3156eebe06325cU, 0x3e5f05b03bfec02bU, 0xbda836ccbc4edd22U, 0x3e3f2b83bc3b5e39U,
  0x3db043d8babd13f6U, 0x3d1966843ee1a99bU, 0x3ed84a32be72c45bU, 0xbebdbc4d3d63d948U,
  0x3dba6cff3d9813b4U, 0xbdf68a2bbe862ff2U, 0x3e7e1d10be496140U, 0x3e63bbc33f20e658U,
  0xbebf1102bcaa4704U, 0x3da1095abeae3bbcU, 0x3d12d6853e4867c0U, 0xbda6dcfe3d1b95b9U,
  0x3d94f2443dade424U, 0xbe7ef5e83e83e0d7U, 0xbd9bc4debe4a9633U, 0xbe01fdfebdf9f47eU,
  0x3c85c54cbe23df40U, 0xbee70ff5bdd7c9ceU, 0xbf01f1b63c915c28U, 0x3e14c0f6be99faf1U,
  0xbdebdccebc95800bU, 0xbe4eeee83c97b0d6U, 0x3e81e47cbe73aa83U, 0xbdb8fbf03d1dd17bU,
  0xbea64bc13e11d291U, 0x3bf0c70fbd558019U, 0xbc3637aabebb61c9U, 0x3e253cc93e28c016U,
  0xbebdf41c3da24027U, 0x3dc925093d93d708U, 0xbe41edffbe2d2485U, 0xbda261033eb27b14U,
  0x3e916bacbea16505U, 0x3eadc6ca3dc7c846U, 0x3dd489b83defb295U, 0xbdf200bfbdf472b8U,
  0x3ca51474bee192e5U, 0x3e97255f3e93a655U, 0xbe48fffd3e4cc20bU, 0x3e09700b3e67dc94U,
  0x3dd40524bd1ad0c3U, 0x3df8553f3e86f4f4U, 0xbe8631d0be061095U, 0xbebefa423da83ba5U,
  0x3e06c052bc1cc70bU, 0xbc9a43b0be92a8ecU, 0xbdee0242bcc702a4U, 0xbef4c7e3be990eb8U,
  0xbe2cd312be46d1e6U, 0x3e12294d3f05e3d9U, 0x3e2bb2843edcf158U, 0xbdadf0afbee2ef99U,
  0x3e393965be6e79b2U, 0xbea61f873e56d398U, 0x3d8390b2bd03b277U, 0xbdd93233be59663eU,
  0x3ccbe2233d556939U, 0xbdec75363e2c9578U, 0xbeaf7caebe83938eU, 0xbd7a4d9b3d0dab35U,
  0x3d870ede3e625211U, 0x3dd90d083efea933U, 0xbdbf6966bdac0ac8U, 0x3e5a9e923c9623adU,
  0xbe903c78bead3747U, 0xbea688ce3e3e42c0U, 0xbef0cb6dbefc3978U, 0xbce538fbbe4767e1U,
  0xbe860691be52119cU, 0x3d262ed4bdce87edU, 0x3e9d7a19beb5759bU, 0xbe3a5f8e3e36a641U,
  0x3e77bd9ebea211c8U, 0xbe988c973e9f106fU, 0xbd59bfdfbe451cccU, 0x3e89b550bee6f38cU,
  0x3e759163bec4952cU, 0xbd464a5ebd2695abU, 0xbf44af58bd8142a9U, 0x3ce802f33dda9298U,
  0xbd74f574be93d270U, 0x3e42cb4e3e07bf66U, 0x3e8023443dfceeebU, 0xbf0b246bbd13e64eU,
  0xbdd0411a3e187f8aU, 0xb995f4babf229867U, 0x3d13806ebe85c6d4U, 0x3e29b7743e9f99daU,
  0xbe5dd39dbe2f5584U, 0xbe4078943e4a5715U, 0xbce7f4003e532be9U, 0x3bf221073e2c0e7bU,
  0x3d7bcacbbe48ca5fU, 0xbe09c7073f0333b2U, 0x3eea7276bd267e5eU, 0x3e676a393db0530eU,
  0xbdb8a68a3da9684cU, 0xbed33486bd831d27U, 0xbeb1721cb7be6417U, 0x3e87132abcda86ddU,
  0xbe8e76f5be11d15aU, 0xbcd206ba3b0f52dbU, 0x3e09cebe3e5f3b40U, 0xbcab0610be25eb54U,
  0x3da5fb47be7ef531U, 0xbe94d2853c455183U, 0x3e9a40cfbe5c37d5U, 0x3ecc579d3edc0f28U,
  0xbf39e96d3e11b882U, 0xbddd721b3e4e85dbU, 0xbef64fda3e6db4e9U, 0x3d7feccd3e79a35aU,
  0xbe2ae2d73ae52f9fU, 0xbeb72090beb768b1U, 0x3e26ac12bd56cea2U, 0xbeb64da9beec3410U,
  0x3e80ffc9bb8cac22U, 0xbe62a3cdbd958df9U, 0x3d9213193e35526cU, 0x3f0915593e3c4149U,
  0xbe9e751c3c89f33fU, 0x3da3b2af3dc37ebfU, 0xbb7b39813e44708fU, 0x3dac8a153efb3bcdU,
  0xbddcaa12be752dc2U, 0xbe8fd2643e2c1c7cU, 0xbd07bc85bf0e0338U, 0xbe09e3e1bd200a4aU,
  0xbe54f1ad3cd76e70U, 0x3c59de013cffc091U, 0xbf1b5a73be938fa7U, 0xbdd039553e9182e8U,
  0xbe6ecc55bea83339U, 0xbcfadf8d3d683855U, 0xbd9063ba3e9460d6U, 0xbea0e5183e82c836U,
  0x3e9f813cbe487ac4U, 0x3e8075d43d1fe305U, 0xbf04fd743e3fc8feU, 0x3e60d37a3e45e9efU,
  0xbed649da3c21ccd6U, 0x3cf5094b3ea8c190U, 0xbe8fefe73df9907cU, 0xbe9096bbbe4f8e36U,
  0x3c13bc53bc1f85d0U, 0x3d8b784cbce5ffa5U, 0x3e107e6c3daf389eU, 0xbe012a6f3e13e53eU,
  0xbe419312bea8d8bdU, 0x3e85fea53ed11e0fU, 0x3e02d1013e490b98U, 0x3f02bb7bbe5f14b4U,
  0xbde8aa2abe06836cU, 0xbd9883833f12d4aeU, 0xbd43f559bdf9534cU, 0xbe9f9cd0bf069f8bU,
  0x3da75051becfc358U, 0x3e90d1e7be6d6519U, 0xbe678c75be87febfU, 0x3eb84052bf095c18U,
  0xbee71707be593408U, 0xbd09b00f3eee3f7dU, 0x3ea77caabcfe637eU, 0xbdd6b38e3dbb5b2fU,
  0x3e940267beae38d1U, 0xbe58777cbdac1e0dU, 0xbdc8e5b03e2239c5U, 0x3f1914863e45cfd6U,
  0xbebfd50bbe754a96U, 0xbdfbbe9c3e647693U, 0xbd97c9253ecd234fU, 0x3c923cfebe2f0939U,
  0x3d74ae3cbc8df8dfU, 0xbd6b2083be56a998U, 0x3ca1b8dc3d8c2326U, 0xbd173e583e85884dU,
  0x3dab7ba0be47d275U, 0x3eb76efd3e96114aU, 0xbe8e725f3dea78f0U, 0xbe533c9c3e025678U,
  0xbe7003423e904e92U, 0x3eec07353de5ca62U, 0x3e67b699bd76b845U, 0xbd478c50be3012a9U,
  0x3eb2e595be802becU, 0x3d9c74debee086d8U, 0xbd60d11ebdc2fdf5U, 0xbd3bea0a3d100fe8U,
  0xbe9919ddbe956492U, 0x3ea321e03ea0a729U, 0x3d94467ebed8e998U, 0x3c9f2ed53d723d3dU,
  0xbe814b92be2e6a79U, 0xbf1d532c3df03e6eU, 0xbd9cb98fbe9fa26fU, 0xbe2b9633beaf8814U,
  0x3e5ed487be03d316U, 0x3daf92c33dbfffc0U, 0xbe7c94fcbcf1e5e3U, 0xbb85116c3d4c4d73U,
  0xbebe5d13be29e379U, 0xbe66d10abdcb7319U, 0xbe40bc573eb2562dU, 0xbe0f069cbeca550aU,
  0x3e113878bcac2248U, 0x3df01fdf3ead8c56U, 0x3df46dabbe04e135U, 0x3e8e1ee83e41e9bfU,
  0xbd963ac23e33160eU, 0xbe62ef563e83c6c2U, 0xbeee526b3ed61651U, 0xbe0f997c3eadffd9U,
  0xbdea54e1bba5bd5cU, 0xbdce071bbeda5a66U, 0x3ea6c41ebdf70c94U, 0xbe391802be1a0063U,
  0x3e8694e3bec94f71U, 0x3e470b4f3eaeb268U, 0xbcc092ff3d97e376U, 0xbdd64d003e892650U,
  0x3e4b7aef3e74bb71U, 0x3e0d15913d34423dU, 0xbc602f3dbd38d371U, 0xbd00a8fa3ded57c9U,
  0x3ba8e60c3df26a7dU, 0xbe9a60ccbf17f8d1U, 0x3dc82f51be73ec2fU, 0xbeb3178a3e7b763cU,
  0xbe2f4624bdd0d41dU, 0x3e25cc9bbd94a15eU, 0x3e2249753eeeb106U, 0x3cdb8a3b3e1b9e20U,
  0x3e0c9916bddb429fU, 0x3d0fc4293ebbadbaU, 0xbe45772cbe7caf51U, 0xbf0e04913cd56aceU,
  0x3e86b423bedc5ee5U, 0x3cfbb1e2be27c6acU, 0xbe811811be2298a6U, 0xbd174690beab9cc3U,
  0xbe6416a8bda88eabU, 0xbed3b4dd3e2a0ac6U, 0x3ea41a1cbeea0bcaU, 0xbdf5f3833e410266U,
  0xbe09b486be8e3debU, 0xbe2a464e3e6f5689U, 0x3df7b27b3da71cd8U, 0x3d33a9063d13a9e4U,
  0xbe391c40be66c50dU, 0xbd3f7e6dbeb2c2acU, 0x3e8e8fc83e8e6a05U, 0x3e8054bfbd8c67e0U,
  0x3de7bef73e0b6e7bU, 0xbe8f880ebe0038e0U, 0xbe0a01bdbe06bbabU, 0xbdf2153ebec09884U,
  0x3ec26b0dbcaa1949U, 0x3d82d4b03e0fa95dU, 0xbe528d323ebcb796U, 0x3e893d103ea6c4ceU,
  0x3e79b0183efda3e1U, 0x3e835b203e9ad108U, 0x3e3dcec33e173d8eU, 0x3e5da7383f0b66e2U,
  0xbd1ce5c0beb4bd31U, 0xbe96192a3bd97d6bU, 0x3deb7abcbebf9532U, 0xbe8cc0f5be023a1bU,
  0xbdd2b1ce3c4ebbccU, 0x3e704f243dcf86bbU, 0x3d0d41133d9cf0aaU, 0xba5b2de63ea7f165U,
  0x3e185d06be66190eU, 0x3e00c5c03e2fec74U, 0xbcda533d3d864b5eU, 0xbdb045ea3d304df9U,
  0x3e7c82d03e500b2cU, 0x3e5454e23dd7acf2U, 0xbee7129fbdda6701U, 0xbdd876b43bc9c2c8U,
  0xbd733ebb3d3cd2c7U, 0x3c2a27cebec58751U, 0xbe0dce1a3c0b503cU, 0xbe59c291be143d01U,
  0x3d1e3ff63e8d4a9eU, 0xbdbc23033d19685eU, 0x3cfd2ec5beacf148U, 0xbeafdf843d26be79U,
  0xbeb090403da20c50U, 0x3eac63ae3d900692U, 0xbeb3fb96be0cc88eU, 0x3e4af4c63ecb351fU,
  0xbe3debb4be145eb3U, 0xbf060e5e3f187fd5U, 0xbe1092e93e580db4U, 0x3e45113cbe25fc94U,
  0xbdd00f1d3bd5a5e7U, 0xbe3d928dbe94ee41U, 0x3c8bd05cbca50abeU, 0x3ef03c9ebe8f01cfU,
  0x3df31a053e3bf974U, 0xbe3f2ca2bea4c129U, 0x3da3e38e3cb8385dU, 0xbcc34d8e3e238f69U,
  0x3e09216b3a31f47dU, 0xbe2987593e719bb2U, 0x3e92c1e1bc2286ccU, 0x3edd53823cea2b2aU,
  0xbebcf8d93e595683U, 0xbecca8463dda1a3aU, 0x3d3b510bbb166cd4U, 0xbe1849033f04655fU,
  0x3e694082be993ac0U, 0xbe63ccdbbceeb3d1U, 0x3be9a6503ec610c6U, 0x3dd6de3dbe83c66aU,
  0x3e3ecb123e26ca5bU, 0x3e8f5f893e7c4467U, 0xbefc410b3e702325U, 0xbd99d171bda2a74eU,
  0xbd92cbcb3e909189U, 0x3e4c3d72bd8413a9U, 0x3d266bad3dd9ce4aU, 0xbefe49c2be1e15d2U,
  0xbda052133e41883aU, 0xbcf7f181bf0f5478U, 0x3e0323533e848df9U, 0xbecb4b333d505de9U,
  0x39c2685fbc524342U, 0x3e11c7353bf9157dU, 0x3dc8235c3cfd52b2U, 0xbc14259fbd3f570aU,
  0xbc6f96313e3e8b90U, 0xbd529d6cbec2edd9U, 0xbd96fc2ebe34dc99U, 0xbdf7912f3d6cb4baU,
  0xbd5c3d723cb3e97cU, 0x3cacb7ef3e590de0U, 0xbe333f84be0cc92fU, 0x3e989fac3e8f159dU,
  0xbe9fe3e63dd2c1d0U, 0xbe2cbbd3bd344373U, 0x3e76ce2a3d499bf8U, 0xbd74c4b93e798089U,
  0xbdda299abd44274cU, 0xbd8711a0be0d4c61U, 0x3e189ec7be02b548U, 0xbc8dfb823dbac23bU,
  0xbecd1b0bbd6ebec4U, 0x3e1996eb3eb7e615U, 0x3d3840e63ea91ab1U, 0x3e693501bd790318U,
  0x3e534ed63e30d0b4U, 0xbe9d68abbea08fdbU, 0x3e8052df3b2cb2ebU, 0xbd845455bf1dc0edU,
  0x3e0fb770be4a0d38U, 0xbe88da513e3e9831U, 0xbed6b1c7be6f1204U, 0x3eb894b7bd8ad099U,
  0xbd9a61f43ef51e5eU, 0x3e15a86dbe129fa2U, 0x3d3301a23ea01c5bU, 0x3e25a72f3d6768feU,
  0xbda31bcdbe3ed4f5U, 0xbe879eb7be8b2d4dU, 0x3e81dc5bbe977ed9U, 0xbe154abb3dd28c61U,
  0xbe175916bd2d0bf9U, 0xbe836a06bc83d125U, 0xbe6affa63e653454U, 0xbed643853b65d732U,
  0xbe6d46c2bf09f9f8U, 0x3ddc26e8bccf55e6U, 0xbdb66b333e25a8dcU, 0xbdd2b97dbdcfd3adU,
  0xbe886152bc090221U, 0x3e436ca03e9c9026U, 0xbe8fd80cbe54526dU, 0x3c3ba1b83cc20f68U,
  0x3eed9e94bd5fc780U, 0xbd491888bcda0c06U, 0xbd29b1b43daa867eU, 0xbed0dc65be33da92U,
  0xbd0f812b3d088d3bU, 0x3e8438c5bef31abeU, 0x3e8b3d313c4bf3e5U, 0xbd2b99f0bcf7babcU,
  0xbe93acbbbe890c45U, 0x3ec39aa83e8fdc33U, 0xbddd72fabe4da52fU, 0x3f09d49c3eca0701U,
  0x3daba6183eb384ceU, 0xbecdccea3e8ffcd0U, 0xbda4bcfebd72b786U, 0xbd6190d0bedca37cU,
  0xbdcfaa73bebd78baU, 0x3cfb11333c852f70U, 0xbe962f653dacbf58U, 0x3e412269be715f79U,
  0xbdf8d8ea3e4654b0U, 0xbebea3e03e9ce260U, 0xbd810d9ebd0ddfb2U, 0xbd9742703dc13774U,
  0x3ddd8ea8be9a0d99U, 0x3e1d92a73ddee9cdU, 0xbe20d4013d490ebeU, 0x3e17c5203e9068d7U,
  0xbea11b983dd2d110U, 0xbeb092ec3ebcf020U, 0x3edd7657be05a495U, 0xbe03f03bbcfe6531U,
  0xbe520747be80602eU, 0xbde86ac2beada94dU, 0xbe296b89bd299b91U, 0xbde829afbe491a32U,
  0x3dcf6572bde1e1ceU, 0xbd145347bd594088U, 0xbd9cd56c3e885b46U, 0x3dccaa983ea26590U,
  0xbe9d06debdbda238U, 0x3e4ffc553dabd759U, 0xbc8d2c65be48b236U, 0xbe9f23953e775b0fU,
  0xbdc3f52f3c6c37a0U, 0xbe5b53aabf0b0bd3U, 0xbe0924c8bed04804U, 0xbec73023beb7a09aU,
  0xbe5d6d7fbea38dc2U, 0x3d83b66ebe29b10dU, 0xbf1124bcbe2dff3aU, 0x3e2f29703e5eb215U,
  0x3e802a41bdeed0f9U, 0xbebea5d23d10004fU, 0x3e7c19e63ca3cc13U, 0xbe0c84bdbe634419U,
  0x3ee760e33dcedc87U, 0x3f0748033e8c9823U, 0xbea703a0be9393d0U, 0x3e08fc443e0ba3e0U,
  0x3b9089603b7e5948U, 0xbe25940abd912045U, 0xbd08076f3e196337U, 0xbebe6da0bec1b175U,
  0xbd16e310bebeaca8U, 0x3e9eb459bca8ae91U, 0x3dc44bb9bd8f35a2U, 0xbc4d93723eb57c41U,
  0x3dcee5dfbebeb36cU, 0xbe6527fa3b5c33fdU, 0xbd0eed04bebef83dU, 0xbde9b02e3e2b9b63U,
  0x3e3abd123ee02fddU, 0x3e133b513e3fe19eU, 0x3de5d44abe873b42U, 0xbe9a515abe5ed66dU,
  0x3dc6238bbec9ae5fU, 0x3dc756193eacbbdcU, 0xbe28d862be98c33fU, 0xbed45d893a91dbfdU,
  0xbe2ae5903dd9e746U, 0xbed689963e907204U, 0x3b4fd0cabe241dd9U, 0xbe46ad6abd56caceU,
  0x3e6b2d6bbef82376U, 0xbd898067be4bb61dU, 0x3daecf053e9520e7U, 0x3efc04cd3ea9d272U,
  0xbea4f8c6be429139U, 0x3e2550cb3e63e3d2U, 0x3e9d143cbebdc7f3U, 0xbe6fd34a3e515816U,
  0xbebf7486bdc14c3aU, 0xbf09118dbe573db0U, 0x3d559882bd896358U, 0x3eda661fbeed2570U,
  0x3e7b1799bd099d9eU, 0x3dac9d13be6ffab0U, 0x3c1ff0273ea9dfc7U, 0x3d53cf87be7453a7U,
  0x3c67289abe9de8b5U, 0x3ee28b4cbc72d43eU, 0x3e3961793c8ead47U, 0x3ea9696bbe00a327U,
