/**
  ******************************************************************************
  * @file    network_data_params.c
  * @author  AST Embedded Analytics Research Platform
  * @date    Wed Aug 31 22:23:55 2022
  * @brief   AI Tool Automatic Code Generator for Embedded NN computing
  ******************************************************************************
  * Copyright (c) 2022 STMicroelectronics.
  * All rights reserved.
  *
  * This software is licensed under terms that can be found in the LICENSE file
  * in the root directory of this software component.
  * If no LICENSE file comes with this software, it is provided AS-IS.
  ******************************************************************************
  */

#include "network_data_params.h"


/**  Activations Section  ****************************************************/
ai_handle g_network_activations_table[1 + 2] = {
  AI_HANDLE_PTR(AI_MAGIC_MARKER),
  AI_HANDLE_PTR(NULL),
  AI_HANDLE_PTR(AI_MAGIC_MARKER),
};




/**  Weights Section  ********************************************************/
AI_ALIGNED(32)
const ai_u64 s_network_weights_array_u64[5150] = {
  0x3eb957f73ed8473cU, 0xbdbe48563ed087bdU, 0xbe9f593cbcdb9c59U, 0xbeaf72ec3c12fafdU,
  0xbe4ca44bbe643db4U, 0x3eaea3603e8e86d0U, 0xbe99b32dbe9fbd2fU, 0xbe6070b5bebbf7daU,
  0x3e2aa3dd3d6409ceU, 0xbdb616ac3eb9283fU, 0x411505673dc75cf3U, 0x41338d0b419697abU,
  0xbe43bed1c05b0dbfU, 0x3e6be41dbf9db9e6U, 0xbdde80863e8bbbc8U, 0x3e744f87be4f111bU,
  0x3c89f0123e570072U, 0x3c860013be145a5aU, 0xbdb1b5b23e15217eU, 0xbde6f7b33c7e6e90U,
  0x3de335c2bead740fU, 0x3e41fb0ebe705e98U, 0x3e0136303e4e735dU, 0x3df3ede43e32ec75U,
  0xbd18d8dcbda0aaa4U, 0x3d2323b33db15d4bU, 0xb9338bedbe3b7b9dU, 0xbe6efd193e38db73U,
  0x3cbd789d3e270621U, 0x3e682ae63e432dcdU, 0x3e869206be3d4378U, 0x3dd380d3bde82fa3U,
  0x3d801db63dd21a4eU, 0x3d4d65c93e47e84cU, 0x3d6a29ecbe1d3569U, 0x3d9c1b513e7be0f7U,
  0xb9f3903fbd1ef694U, 0x3dc6e8653df02dedU, 0xbe1cae23bd73136cU, 0xbe72823fbde613a8U,
  0x3d39e6bdbde308f0U, 0xbe5172e43dcbfbccU, 0xbe4f74fe3da9c948U, 0xbe3292a0bd86433fU,
  0x3bc2f7d83da19d28U, 0x3c35eb15be3df69dU, 0x3d3a6ad23e58d267U, 0xbe48679cbe1bc87bU,
  0x3dee64e5be09e5e9U, 0x3e29fba8bde9b7abU, 0xbdfde0b23dbb6019U, 0x3e0877943cbbfb69U,
  0x3c2a57ee3d775c0dU, 0x3fe1d528bd96ea54U, 0x3fd73d743ff73058U, 0x40898d0740cd3793U,
  0xbec4791ebe8680ebU, 0xbf610ce9bea4fd63U, 0xbdf8ed13becb454fU, 0xbdf66521be70bb2dU,
  0xbe5884573cd9d47cU, 0x3da1cc383d4e1f96U, 0xbd7bdc743e2d37efU, 0xbe28d9923e80caa8U,
  0x3e66de403e474bcfU, 0x3e5af5ff3d608aa4U, 0x3e2263623e3a8f83U, 0xbe43aa843c434bc1U,
  0xbe2f6a7ebdb93614U, 0xbe003a7ebe1c7761U, 0x3e244eb73e3a0956U, 0x3e14113b3bed6ed5U,
  0x3e11c15fbdf83e14U, 0xbb63c59a3c9aff9fU, 0x3da66c4dbe3a1fedU, 0xbd473be23e1d888fU,
  0xbe4193003da80b9aU, 0x3db765483d13e351U, 0xbd62f93a3db12427U, 0xbe17cd853d87a7a8U,
  0x3e110bc4be93641dU, 0xbe1a5e7b3cab1822U, 0xbe4c9d023cea3373U, 0x3d77871b3d0f263cU,
  0xbe212751bc5d1709U, 0xbdf20568be6f3512U, 0x3cbc404e3d690c91U, 0xbc94d2683ca6d3fbU,
  0x3e37779e3d7f6c0bU, 0xbdb920e2be0bfa69U, 0x3d69064e3e7aaae0U, 0xbd5e6f9abd2bfadfU,
  0xbdb8e090bd1cf46dU, 0x3e789d9fbdfb9491U, 0xbe1a6c883da56793U, 0x3ddcc0f2bd8ccf1cU,
  0xbdf45f883d95b835U, 0xbe23d4e43e237467U, 0xbdab438bbdd255ceU, 0x3cb1d7ba3dbcbaceU,
  0x3e2d3ec53d9813aaU, 0x3dff04d13e5ac021U, 0x3e57ef493e43860fU, 0xbe033140bd0cee1eU,
  0xbe5c4f353e310181U, 0xbe2288fbbe0e905dU, 0x3d06ad3abdecba13U, 0x3e3c4766be0becd3U,
  0x3d8c3cb53e304295U, 0x3e0b05023e2cf479U, 0x3e2215cb3e1e7ed7U, 0xbd5cda9bbcfc567fU,
  0x3e3c1bb6bd378954U, 0xbdd4f2a13e20da55U, 0xbc952b0ebcf38200U, 0x3e04fe893e6fd9caU,
  0x3e59f8263dd0c459U, 0x3e26276d3de98217U, 0xbd0a958cbe5a3ebeU, 0xbe29ea1bbdf80270U,
  0x3cc9c4af3d697d67U, 0xbd7f2c7b3e0ed700U, 0xbe38aabfbdc59ee6U, 0x3e4c63d1be631649U,
  0x3da256983cd641dfU, 0xbe3736f1be1db927U, 0x3e649e9cbb921feaU, 0xbe709102be28b574U,
  0x3ce0de1bbd86065eU, 0xbc27ec093d9bb826U, 0xbe40384fbdc4a2aeU, 0xbe5eb100be2c6056U,
  0x3b9b603abe0b8b22U, 0xbe0c3f2dbe17b236U, 0xbcdce2223d9c5dc7U, 0x3cc292abbd13eea0U,
  0x3e0901e5be2cdd42U, 0x3e7207073d79b513U, 0xbdad69e73de55a18U, 0x3c427d4cbdb16728U,
  0xbe30f6d8be31d434U, 0xbd98a27cbe646494U, 0x3d268b763d12413fU, 0xbe5b2d26bd082635U,
  0xbdb4c64d3e2b2ffeU, 0xbe3b09b9bde7f331U, 0x3ca2c87abe4f2f58U, 0x3e23a13d3d5d141aU,
  0x3e28a52bbe2f3008U, 0x3d41a42f3c49c0bbU, 0x3e8c058d3e81d106U, 0x3e348800be6ecc6bU,
  0xbe27d3f4bad6b8c7U, 0xbe1d1594bc929f04U, 0x3e191dbb3e1658a4U, 0xbe09621dbddd5e1cU,
  0x3cacd583bd7fcd3fU, 0x3dcb606f3e15e83cU, 0x3e080af13e54af71U, 0xbda87428bdcfbdbdU,
  0xbc57855ebe7f3579U, 0xbdec65fabe466ea6U, 0xbdb2d2243d1ee37fU, 0x3fdd4f4cbd36897cU,
  0x409aa8fd40b6836bU, 0x402162a9409ddf04U, 0x40a231323ff855c3U, 0x40ea585240693d6dU,
  0xbedefa303ff9f3cbU, 0xbeed5d7dbed3c1c1U, 0xbebbfe3dbea2ed2bU, 0xbf1fc80cbea7ddeaU,
  0xbf775338bf47dd5fU, 0x3e1b06bdbea74962U, 0xbd206b4d3e4caa5cU, 0x3d0d22f53e062789U,
  0xbd9ff32b3df7a496U, 0xbca64a743dafdd24U, 0x3c027e013e1056e8U, 0xbe181000bd29029cU,
  0xbda84be5bd88535eU, 0x3b92b4debe164277U, 0x3cdeb2033d6852d0U, 0x3de8a2c6bd9d06f4U,
  0xbc5bc130be09ee0aU, 0xbd2d57ff3d48eb2cU, 0x3dcc58ae3c760d93U, 0x3db5146cbdfb1c79U,
  0x3cc4ff8fbd29dc2fU, 0xbda377cd3df25292U, 0x3dd745ff3dda4343U, 0xbd853aed3daded74U,
  0x3d1d3f46be13ad1bU, 0x3c996da23e2a2267U, 0xbd0cc36e3d83e06eU, 0xbe01eb81be41fb61U,
  0xbdaf7727be242d23U, 0xbd922dff3d02c0f3U, 0x3e296ce13e1f0ea2U, 0xbdcfb0afbd3be5e2U,
  0xbd45d3d6bdae9ed7U, 0xbe2e87bcbd1c9adcU, 0xbe28cf3e3dcf7305U, 0xbdfb74cfbd5cb9b8U,
  0xbcc80658bdba9154U, 0x3d99059dbda30b7fU, 0x3dc567d63d9cbed3U, 0x3d8b5c9fbccf2e7cU,
  0xbd82dc4fbd84fff3U, 0xbd94d5ac3e1a280eU, 0x3dbe1f7b3e34a66cU, 0x3c56e2a8bd552faaU,
  0xbcfa7087bdb87680U, 0xbe20f1913e24baa3U, 0xbcdf53743e282336U, 0xbd861c04bd5c1775U,
  0x3dbd83993b90ea70U, 0x3de2a0a83b42f256U, 0x3e023e67bdaa51caU, 0xbd98a5d3bdc72ab2U,
  0xbccd1096bce425cfU, 0xbe3199173d06d29bU, 0xbd48976d3ac6916dU, 0xbdd56435be109bd8U,
  0x3db6b03cbc922ff4U, 0x3d0ada973d4a0c20U, 0xbcd47582bdd21056U, 0x3d3050133e40e139U,
  0xbd978d773d8330afU, 0x3e0d84c5bd4a69abU, 0x3d315ac0ba9b6198U, 0x3d4931353de87870U,
  0x3db4dd76be4bf158U, 0xbb54b370be33ba63U, 0x3dcd00723b54184cU, 0xbcb9ec54be061271U,
  0xbdbfe419bda6f251U, 0x3e216b53bd43c840U, 0xbd0403443dba978cU, 0xbded4cd0bd2dce82U,
  0x3d61ceeabd309336U, 0x3dfed6ffbdb0b770U, 0xbd4e767fbbd01ee5U, 0x3d09b1c1bdcd32fbU,
  0xbd615b4dbd9883aeU, 0xbd7f4c393e033121U, 0x3cb5367ebdba6efbU, 0x3da52d61bccb5cd1U,
  0xbdfdd2523da71ba5U, 0x3e232089bd439551U, 0xbd1e71ee3d1afce4U, 0x3ce00bde3e27334bU,
  0xbdcad230be3b2f18U, 0x3de365853e2b58ebU, 0x3dd360853dc47b4fU, 0x3e2066ebbce573a3U,
  0xbd5d963c3dfd3c62U, 0x3e1f055abd2a5dc8U, 0xbcf8ca543e1493caU, 0xbe034d283d98eb04U,
  0xbd39ec27be148e7bU, 0x3d9b1ec1bdaf7411U, 0xbdb309443ce8e90cU, 0x3d714d913d06ab93U,
  0xbbbd857c3e1ce471U, 0xbe02adf13d79b03cU, 0xbde37ce83dbe8632U, 0x3d9b46f83d8c0abbU,
  0xbdee77e73dc9ad06U, 0x3d0c85ee3cc14b2bU, 0x3e029181bac673c5U, 0x3e00f966bd09d82dU,
  0xbbf1f88d3c87fb9aU, 0xbde00beb3e0dff3aU, 0x3d5531cd3e430793U, 0xbcbfd0aebddd7d87U,
  0x3cc26913bddf96f3U, 0xbcdd5ba13e0c1925U, 0xbe1bce46bd92c155U, 0xbd849dea3e134834U,
  0x3d8ede50be021762U, 0xbe3298b93d7cfbe8U, 0xbc52deab3e155dddU, 0x3e2177edbe2694f1U,
  0x3d3e59b63dcdf7a8U, 0xbda5975ebd41e3aaU, 0xbdb0d9213d94d2ceU, 0xbe30566ebe1ce000U,
  0xbcb2baba3dbf8e33U, 0x3c1d57463dcbf7d1U, 0xbd161fa63cb7305fU, 0x3caa0bdd3dceaff0U,
  0xbd2f249e3e2588cfU, 0x3dd74d5d3c91a6adU, 0xbdd0a64abda530fdU, 0x3d93acc7bd78ed99U,
  0xbe1ab88cbe012556U, 0x3d9e2155be5513b2U, 0xbd3a382abe400947U, 0xbd1c4e12bd782acfU,
  0x3dc7ddb8bde5ba49U, 0xbde0874abdb19673U, 0x3c1aacfe3b95832fU, 0x3e1aeb823c70c6b5U,
  0x3db615f2bdea00afU, 0xbd8319fbbddeb62fU, 0xbe458646bd62469fU, 0xbe46380cbd6bd699U,
  0x3a4d6d3c3cf53390U, 0xbdf0078ebd91a70eU, 0x3e06b616bd0aac61U, 0x3d89d62e3d9c983bU,
  0xbdc297ea3cc2576cU, 0x3d09ea2a3d91cae4U, 0xbdf8e5c3bdf261f4U, 0x3b39ff213e44616aU,
  0xbcb68650bd9e03d6U, 0xbe442f73be4340aeU, 0xbdaf7224bdad04bbU, 0xbde460043e1944ccU,
  0x3e09c526be279172U, 0xbd4f628f3dcd0030U, 0x3a768b373e01e794U, 0x3dcea229bce955f4U,
  0x3e03232cbd1af5e0U, 0x3e146060bd087fa0U, 0xbcbd284d3c48df8eU, 0xbbb8fd833c78cf3cU,
  0x3dc11ca63c98fb66U, 0xbdf550d5bd670c30U, 0xbdb184913b2f9013U, 0x3e1b7170be1164fbU,
  0x3dd593953ddb70d5U, 0x3da58e5c3debf1ffU, 0x3dd255923ce2650dU, 0x3dde71a1bd2f0f84U,
  0xbdb429eebdbf5ee6U, 0xbe3e65de3da6e829U, 0x3e2b29f5bdd60593U, 0x3dffabbc3e139c88U,
  0xbdced1873c0f98bcU, 0xbe088dde3d449cf6U, 0x3de22fb73dcb933eU, 0xbd0d9ba83d45d909U,
  0x3dbef9b73dd81f84U, 0x3b1cc2e2bd9e1684U, 0x3dcbe035bd977d68U, 0x3dd9d4443dcaf01eU,
  0x3e1aaa32bc4dfe5cU, 0xb955b0acbe1003c5U, 0xbd1e81adbd9e3fdeU, 0xbe252af6bde19c0bU,
  0x3dd7370fbcedc3a1U, 0xbd8e29d23d628120U, 0x3df72e0abce757a0U, 0xbd87fc41bde26576U,
  0xbc03229e3dd3abcbU, 0xbe349c77bc9c918cU, 0x3b8b59f2be2375c7U, 0x3db3411dbd9a300aU,
  0x3bfe70ed3c6e16d6U, 0x3cf174553e13194aU, 0x3d418b3d3cfc7967U, 0x3dc2b9743d6320e5U,
  0xbd4edcfebdedcd66U, 0xbc531f693df8a7c2U, 0x3d2271a4bdd0832cU, 0xbde4f8e73e069750U,
  0x3df2b2fe3cb731efU, 0x3da5f7d13d6918faU, 0xbd044cf0bdf60608U, 0xbd2a541c3dddfb0cU,
  0xbe3dd6173dbaf341U, 0x3d8b912c3df1d853U, 0xbdd8be2cbda33ae9U, 0xbca767143dd68cc6U,
  0x3d876891bce1e965U, 0x3e52c3e2bc478ab8U, 0x3d541fe83dfc290aU, 0xbbf2601cbe31bfd3U,
  0xbdaa34a8be0a78c4U, 0x3ddf6ad8bdf16da5U, 0x3d84cf193e10ec6eU, 0xbc8c5852bdc86aabU,
  0xbde238203d8e0f55U, 0x3e0a322cbdf9fe5dU, 0x3dc81ce13d852911U, 0xbc769511bd0f9dbcU,
  0xbca328c73dac588aU, 0xbd94962cbc8c2541U, 0xbd0eb7ea3e298453U, 0xbdf117023e34bd30U,
  0xbdfd1cf9bd16d756U, 0xbcbab3d53d6b2a3bU, 0xbdeb9844bc9d8c0eU, 0x3cc55dd73dd09033U,
  0xbcdc361f3dde8819U, 0x3de09b1e3cb7fe81U, 0xbdbd1ee63df4b09eU, 0x3d82348abcd419feU,
  0xbda06952be0589f6U, 0xbcac68a9be4bb774U, 0x3d4e0d233d54f455U, 0x3e391d963deabcb9U,
  0x3d904fd13df196ffU, 0x3d45cce03df8890eU, 0xbd41d51b3cb908eeU, 0x3d0525033e11d7e8U,
  0x3e5cc5943e380cdcU, 0xbcdeba11bdad8db3U, 0xbb354be3bdbc297bU, 0xbe3a9e1dbe0d92abU,
  0xbe55a44c3d7ce396U, 0xbcbf3b32bcdd95c5U, 0xbda83869bcbb3c13U, 0xbe13cf48bccd58f4U,
  0xbd645262bda64806U, 0xbe2882af3d6ee683U, 0x3c32b8fd3d9ada89U, 0x3dfc9a373e3aa392U,
  0xbd6b55963dc54273U, 0x3dfe69c4bd1326baU, 0x3d143b673cacb0aaU, 0xbc3c2d71bd8eb51eU,
  0x3cf2cd38bd9ae676U, 0xbd828aa33de46f93U, 0xbd95aec33d0d9eddU, 0x3dda7492bb4be5caU,
  0x3de5e8173e0421eeU, 0xbd8e6f433dc0be1eU, 0x3e04dca0bd09d727U, 0x3e0133793e151a95U,
  0xbd15bff0bdccd0b7U, 0xbda10947bd9a9102U, 0x3c1934c2be3a10e9U, 0x3da107aa3d62ad2dU,
  0x3dca39943dc8912fU, 0xbdaf8033be6f79dcU, 0x3e129feabde245faU, 0xbde903d4bd48fcc5U,
  0xbdf16640bc5e5eebU, 0xbe11ebd5bc7ca456U, 0xbb305de73e1cc49fU, 0x3e0e73e93d0cd6d8U,
  0xbdf179e1be5215c5U, 0x3d93562e3d74617fU, 0xbd82533b3d6ea8dbU, 0x3df763ab3e0a8cdcU,
  0xbc1456f13b962bedU, 0x3e4c5719bc318abcU, 0x3e1ed422be174500U, 0xbcacd1c3bb2d68c2U,
  0x3e08a2953cdc6e3dU, 0xbe0e87333df79367U, 0xbe0bded13c37a1d3U, 0x3d602575bcce3f9eU,
  0xbd0f65d7be298b53U, 0xbd1b1f853e081929U, 0x3d24efa5bd2741c8U, 0xbd91b1e3be2e6280U,
  0x3e2bdcb3bdc5fdebU, 0xbdf7e661be0abd9bU, 0xbdae3457bc95c74bU, 0x3dd413403e1774c9U,
  0xbdb78276be430d2dU, 0x3c752ff83cb3ab14U, 0xbd037e03bcf17d4eU, 0x3c326b16bdaf1e9fU,
  0xbd7824ec3e186a02U, 0xbdf715aabdfe2218U, 0x3d523f013dcab808U, 0xbe05ac473c96d1f6U,
  0x3c44d3febdae82eaU, 0xbe12bbfdbdbaa692U, 0xbdeeed45be328866U, 0xbdbe7ceb3d87a5f9U,
  0x3ccf40603ceb68ceU, 0xbd57436ebd979ee6U, 0x3d0be309bd96cd5eU, 0x3cb6d4ca3d618c81U,
  0x3c890e643dddb0a7U, 0x38987564be180b60U, 0xbe08aad9bd817bb7U, 0x3e2653a0bd8db21dU,
  0xbc470c85be1c76c2U, 0x3dbd885e3d2bb89fU, 0x3c769657bc5f44c0U, 0xbd97ada13cabd58fU,
  0xbde11b023df768a6U, 0xbd24b871bdde3af4U, 0x3c8b860ebc9607e6U, 0xbdf5bae23d82293eU,
  0x3d830540be615275U, 0xbddfb2cebdacb055U, 0x3e031d21bd5eec28U, 0x3e005383be3aae3bU,
  0xbbc9478b3cccc9deU, 0xbe4c16503db97c89U, 0x3bdf96033c99ac51U, 0x3dadf09f3e102f47U,
  0x3e05e44c3d9349a5U, 0xbd8e0a6d3c7e002bU, 0x3d4982abbd300555U, 0xbc8fd5a6bdbfea09U,
  0x3bd8fa2ebd21f621U, 0x3da99e6fbda91619U, 0x3da900b9bda000d7U, 0xbd95c4003bae281dU,
  0xbc6b58443dbefe82U, 0xbdd4b17fbe1c3ae2U, 0x3cd7336bbdef4df9U, 0x3d0f25efbe1293f1U,
  0xbe2a0575bcf1e0efU, 0xbe021c613d652c10U, 0xbd9bae403d94b905U, 0x3d1fbf29be50acf4U,
  0x3ca35e13be0aae04U, 0x3e520c7d3d977496U, 0x3e18d39b3dc54b81U, 0xbe0fea49bd1d9b62U,
  0x3ded0f353d948729U, 0x3c6b28ffbe0ee1d0U, 0x3cd770af3e0fe4c6U, 0x3dff869dbcad5de2U,
  0x3d00db69bddca624U, 0x3ddb5eb93dd28860U, 0xbe2ef864bae55246U, 0xbe31c3e0bd077e92U,
  0x3e2bcee83e0a7867U, 0xbe109144bdcdcc21U, 0x3d473a36bdf922a8U, 0xbc92166d3d7dedabU,
  0xbe2b443abded656eU, 0xbe2127103cc80860U, 0xbd4773f83d870509U, 0xbe2721f9be089936U,
  0x3e1c4190be27ac08U, 0x3d201fe43db85dfcU, 0xbc6bcde73d1185d6U, 0x3d05530d3d5a1839U,
  0xbe11c5d9bca5009fU, 0x3d3d9064bd82607bU, 0x3d92b00a3e357418U, 0xbdc4bf513e00fc5eU,
  0x3d026f483e060adaU, 0xbcd6f28c3d0252f7U, 0x3e3bfba33d307f2eU, 0x3e217cd2bc372ae5U,
  0x3e02fa713e01c3b8U, 0x3cde60a33db0a57cU, 0xbd2a36e2bd3f3421U, 0xbc92ef453cba9912U,
  0x3d80b4a7bd222e79U, 0x3dd7bd1dbdab078cU, 0xbe349d1ebdc4e731U, 0xbe294ba03ccf45b1U,
  0x3bb4a979bd970197U, 0x3c8aaf43bbd87305U, 0x3cb20a3f3dbebbc6U, 0xbda5c1a1bc89df0fU,
  0xbe0e3d9c3e1d781cU, 0xbd737310bd5fd340U, 0x3d01260b3d7242b5U, 0x3e56377a3dcdc19cU,
  0x3db95f2abd84e99dU, 0x3e377a59bdb29d10U, 0xbda2969a3d3d3bc2U, 0xbe2f77febd8f1e46U,
  0x3c184a0f3ad2cf8dU, 0x3ca981dfbe3663a8U, 0xbda32385bdbb8a94U, 0xbda139f43e188c28U,
  0xbd81749fbde118f2U, 0xbdf7a9673cf1a8cdU, 0x3d9e3391baeae0c0U, 0xbdb1413abdef39bfU,
  0xbd3c463d3dde8569U, 0x3e2070aebdc4f7d1U, 0x3e34bed7bc41d2c4U, 0x3d7768533cecb86eU,
  0xbbb8f109bd7ec6e3U, 0xbd1cbd31bc71b142U, 0x3be611f13d755d19U, 0x40300d213decf8f8U,
  0x404f0a384061d125U, 0x4037c7c4406a8cd8U, 0x40858d31402324c5U, 0x402c59cd4021b2baU,
  0x406788fb402f6d98U, 0x403a017040050bb0U, 0x40c209ed4029f473U, 0x40146cb2405c529eU,
  0x405f2af9401cc1e1U, 0xbed4601a40184437U, 0xbf82846cbeffa72eU, 0xbeeb04b9bee44795U,
  0xbf245898bf21f26fU, 0xbf4be5acbec17dd0U, 0xbf801b6dbed133e7U, 0xbf25fd2ebee95290U,
  0xbf5fb269bee69167U, 0xbec8649cbeee93b0U, 0xbf246354bf1712e4U, 0x3ca75a55bf0fcd9dU,
  0x3c852362bb95c691U, 0x3b56eeddbcec6b34U, 0xbd147020bc525948U, 0xbd897a083da3ecdfU,
  0xbdb85eb13d087616U, 0xbbbc112b3dae20f7U, 0xbe029bce3bc0d44eU, 0x3d576caa3bab39adU,
  0x3b5c84d2bdbd9038U, 0x3e04a662bd4a3217U, 0xbda02f6e3d098108U, 0x3c184e1d3d2ba9c3U,
  0xbd5fab9c3e0aae5dU, 0x3bda8576bdcc13eeU, 0x3dd82d83bd1e76d9U, 0x3cbe61383dda7486U,
  0x3d621f493cd5d9d2U, 0xbddeea7a3e08bc67U, 0xbd6d47afbcf4d086U, 0x3bc684323d45c8a4U,
  0xbe0de6ebbd68da2fU, 0xbd201b8ebd857c5fU, 0x3dbd60d0bd234b84U, 0xbd8d520d3d5268b3U,
  0x3e07c1ca39b426b8U, 0x3ddf4fcc3e2107d0U, 0xbc8b1172bd34f08aU, 0xbcc4531abcdf3690U,
  0x3dcdc570bd2bdf25U, 0x3e03cc9f3e096ebfU, 0xbda58ce53e05ed80U, 0x3dd8e74e3bcb36a1U,
  0xbd461179bd584db4U, 0xbda90e1b3ba46a48U, 0xbdef35a03c8b846eU, 0x3ccdcdbe3cfef30aU,
  0xbd656e46bce95c72U, 0xbd97c0043dabb8f8U, 0xbd98af7e3dd26ca5U, 0xbd3366ab3e11efc2U,
  0x3e0f46f2bd02eb6dU, 0x3c03ed1d3d7d2d0eU, 0x3db3af69bde181aaU, 0xbd70c792be10ea9bU,
  0xbdd94f8b3dd1b197U, 0x3c0bb9e83ca602d0U, 0x3dce48ddbded100fU, 0x3da01887bc283fa5U,
  0x3e0aaac93b8e32a6U, 0xbda43e823db701fdU, 0xbd084adabbcf383aU, 0xbce33f77bdd9fb2dU,
  0x3d2f05d7bcb82e6eU, 0xbc5fa0fd3d874c46U, 0x3dbcafedbe03848cU, 0xbd6eecfebe0fb029U,
  0x3dea89cf3e0c66edU, 0xbb6a078e3c52f244U, 0xbda91aca3d944c38U, 0xbe3924723d74ac16U,
  0xbd8587b83d5910d7U, 0x3d0ad9dcbdcecf4dU, 0xbe2008623d5a6ec7U, 0x3d595a0b3c992065U,
  0x3d241e423d372914U, 0xbbd8afa0bd39f18eU, 0xbdca1004bdd4a2b7U, 0xbe1aa7213db4adf7U,
  0xbd5d4edf3c226576U, 0x3cf3ea59bd971e06U, 0xbb019416bd75846dU, 0xbe1c240b3df8a92bU,
  0xbdc37a79bdd33a79U, 0x3d95c1b23d8ac374U, 0xbda497e3bd7ff3c3U, 0xbd0387783d1f6230U,
  0x3dbde821b9dd4691U, 0x3d766100bd4f4a10U, 0x3d95f2043d48266dU, 0xbb583104bc8a02b0U,
  0x3d905bcabd721c40U, 0x3c4cd4e2bcc85ffcU, 0xbe5e45b5bcc12124U, 0x3de15145bdc1a4a2U,
  0xbcd50e793c92a96aU, 0x3d4890cabd870f39U, 0xbe43f4fc3c927f94U, 0x3d8ff9f0bcaa6844U,
  0x3e041df1be03cf65U, 0x3d5fa3183d8590c9U, 0x3d6a62a6bdea4b14U, 0xbd46d91b3d9321a3U,
  0x3dafaf573c7e6dfaU, 0x3d8a75f43d99a399U, 0x3d8dbcb8bdde7048U, 0x3d5e544abc98bcdaU,
  0xbe16e350bdc7dd89U, 0x3bcc59a23ddf6188U, 0x3d96e6f3bc88941cU, 0xbdda8119bdcfc0a0U,
  0x3dcada153d30e6c4U, 0x3d9f3ecbbccb0712U, 0x3d3fcc34ba99c76aU, 0x3d92998e3d85625dU,
  0xbc38effe3da02666U, 0xbd07c3d9bb0529f7U, 0x3a85a590bcf25c8aU, 0xbd3bce053dd13f66U,
  0x3dc21fe93daed842U, 0xbd8be4d43e07108cU, 0xbca6ebea3cb001aeU, 0xbcda58f3bc9b5185U,
  0x3d9a12413d0f1b2bU, 0xbd51d3433d0705ebU, 0x3ae076c6bdba2083U, 0xbd7b0800bd143ffaU,
  0x3d7dc7933dc19bd8U, 0x3cdea30dbd557bf5U, 0x3c0f45c53dada582U, 0xbd0d31a73a4feabeU,
  0x3d027ad53ca7c214U, 0xbd3289b7bc939b70U, 0xbc2642cb3e03a175U, 0xbd5f5774bd460516U,
  0xbd4355683c223b7cU, 0xbdcbea2c3a8cee19U, 0x3df380b73d73e358U, 0xbdd6e4913dc9bf8eU,
  0xbdc387fa3e0a6877U, 0xbb7848183bf145bfU, 0x3cdc0aef3d9ca512U, 0x3d369156bcc198dfU,
  0xbc8980bfbd05f0f6U, 0xbc734af93d3ca402U, 0xbe04aeee3b727b96U, 0x3d4ae99dbda4ea20U,
  0xbd2fda24bdd787ccU, 0xbcef79e03d81d29aU, 0xbd87a1a3bde138c9U, 0xbc9b0620bd670ba1U,
  0x3e16e49d3dd8ee02U, 0x3cf161e83da9e8f4U, 0xbe1e4418bdb9f24aU, 0x3d8c95c33d858af4U,
  0xbe1dd8dabe02545fU, 0x3cbb4403bdd87574U, 0xbdd5a8ddbd9665e3U, 0x3d468b133cc933ecU,
  0x3def39c4bc79bb1eU, 0xbd7a12a5bd8a5c65U, 0xbd85d55ebdc2ecf3U, 0xbc1ee3673c2db27eU,
  0xbd20379ebd0ee6bfU, 0x3c44b7a03da80b67U, 0x3c8e71eabc78bfc5U, 0xbdbf091abb8d6842U,
  0xbe2dc0af3d2a9aafU, 0x3db431d3bd8f5cccU, 0x3dbb46e73dc43f6fU, 0xbc9558333d367acfU,
  0x3d90d4233b4b9a37U, 0xbdba0a47bd2debf3U, 0x3d51cb8ebdd506d7U, 0x3bb9753d3d3893acU,
  0x3df25d46bd0735ccU, 0xbc85608bbe0231a0U, 0x3dc6d85f3decc5b6U, 0x3dbf074b3dbc4c49U,
  0x3db8ec663c85cf64U, 0x3acb8a4f3c07fd0cU, 0xbe261dfebd6a0f49U, 0xbe021b863d1457a4U,
  0x3ca31a1b3d9d245aU, 0x3c1adfc23c2f2593U, 0x3d8ae07abc4a4b80U, 0xbdd130463cae8297U,
  0x3db797e53d6d66b1U, 0xbcbdb2d43de8963fU, 0xbdbeee653c0abefaU, 0xbd6c8174bc89d440U,
  0xbd9a80e43d89e324U, 0xbc8d100f3d6af6c8U, 0xbe04e5d03d892f2bU, 0x3d26a86c3dd34bcfU,
  0xbdbf87313c8b0714U, 0xbc9f4f77bd683aceU, 0xbd2134e6bcb36852U, 0x3ce1f801bdb9a2f0U,
  0xbc03ef35bdef9d2fU, 0xbdd087c93aa8be6bU, 0x3dbb30acbc8f34fbU, 0x3da9e0f63dff9bc5U,
  0xbd9f2cb0bdf55eb2U, 0x3dda19d4bcfa225bU, 0xbd8fba293c6a8910U, 0x3d8abd40bdb69ffbU,
  0x3ba9d7e7bd13b771U, 0x3d1cc385bc8a0f33U, 0x3d106c423bc4149fU, 0x3d09ed60bdc97917U,
  0x3d8054923bbfac8eU, 0xbc7b982d3d3282efU, 0xbd51ebb23cf2b0efU, 0xbc6e28efbd4f1894U,
  0x3d8021243dac8dedU, 0x3e14efb0bce5060dU, 0x3e02429f3e02edfaU, 0x3dc8725cbd816a24U,
  0x3d80eece3da0f355U, 0x3db273a63e0b6d26U, 0x3dd6d17a3a098233U, 0xbd08845e3dfba847U,
  0xbd800bb3bdb86322U, 0x3db42f56bd2dcba9U, 0x3e0c29bbbd56dbe7U, 0x3dae3a86bda6294eU,
  0xbcbc1f913df03fa2U, 0xbdaa9f56bde9eb6aU, 0x3e1a17be3dc8865cU, 0xbd3bfd6b3d928f05U,
  0x3e06fc02bd64089cU, 0xbc9985923d973400U, 0x3d89a1f6bdc86964U, 0x3c26a2c83dafa8b8U,
  0x3db9a347bd2add0cU, 0xbd9dcb723db1b6c0U, 0x3dc127b5bdbc2d85U, 0x3b8f38ffbc9c13b4U,
  0xbd127a0cbdb5894eU, 0x3e01bcab3de13632U, 0xbcee9415bd6608c6U, 0xbc8485a53b79720dU,
  0x3daabaf2bd1ad78eU, 0xbbf41bafbc3f44f7U, 0xbdfab004bdeb8a21U, 0xbdac6ca0baf3c4b8U,
  0x3bb231b4bbed4c47U, 0x3d3533e5bcca4a99U, 0xbbed7bcfbdd32ea8U, 0x3e157287be0eff49U,
  0xbd901dfcbcbfaad4U, 0x3d87b9293d58008cU, 0xbdf2ad1c3db8ead0U, 0x3e0fd8e63dc7ed9eU,
  0xbdee5f86bab81b53U, 0xbb6eb9b2bd299415U, 0xbe46431fbdc62e8bU, 0x3d70358abe0a5884U,
  0xbc1cfdf0bda1fc6fU, 0xbdb95d03bd4583dfU, 0xbae4322ebddea266U, 0xbca49d36bcccc19fU,
  0xbe0badb53d87d81cU, 0xbd6c8a77bd3575e5U, 0xbd954ec83d2a5bc4U, 0xbdc65739bd2ecc2eU,
  0xbdcc482dbd81ca52U, 0x3d857feb3d4174abU, 0xbd4429afbe24a6ddU, 0xbde0ffcbbe2a36adU,
  0x3df3f12b3bdd45f3U, 0xbbc44c44be257352U, 0xbbc0dc183cb8312cU, 0xbca628e1bdbb981fU,
  0xbd73c307bcd8098fU, 0x3cafbdb0bdf317dcU, 0xbde8139ebd7e3231U, 0x3d7e6197bbca9dc7U,
  0xbd0b0a6dbe09bb57U, 0xbe12a0bfbdbffe46U, 0x3df625cdbd0ebe0eU, 0xbddb0e0a3da99aa2U,
  0xbdff1ea63d7e4074U, 0xbd8e86d8bcb7ed40U, 0xbd83980e3cffe81bU, 0xbde088b1bdacfa9eU,
  0xbdc8c77dbe0dff07U, 0x3d9b9444bdcbd86cU, 0xbde1e3d9be558d53U, 0x3c9a54503cf7e4efU,
  0xbe12c891bde9d2a8U, 0x3da5c155bc43fdadU, 0x3d4b962c3cefc427U, 0xbd50d8fb3dab5cf4U,
  0xbd87c5bb3d6789f1U, 0xbb45fccdbca8fa4fU, 0xbca4fc24bdd8d487U, 0xbe0b219c3cf50211U,
  0x3dda40603d802a71U, 0x3da214a6bd30f735U, 0xbdbfba47bca88aa4U, 0xbc4b6b833dd37471U,
  0xbdc4a88b3d5f16a1U, 0xbdaf5aac3dc39d93U, 0xbb005352bdecb3feU, 0x3d970679bdb49fd4U,
  0xbdd3fa35bdbc5683U, 0xbd5b0ff53dba31bfU, 0xbd92fe9cbd4e5dedU, 0xbd5f41143cdb4875U,
  0xbda73755bd91c007U, 0xbd80ee53bb02440eU, 0x3b9ce90c3d6dc865U, 0xbb9836ca3d26ce61U,
  0xbd564d72bd90ac68U, 0x3b8890293c8faae4U, 0xbd44d7eebdc3edf3U, 0xbd998affbd9d60aaU,
  0xbd53d775bddd8828U, 0x3dbf09dabe1c4058U, 0xbd572236bcecb245U, 0x3ddbe05e3aff37bdU,
  0xbd1827553db33e29U, 0x3d249b453ce8535aU, 0x3cf9ae9e3d46cf94U, 0xbb62aae83d9d04aeU,
  0xbdc73948be1eb3e9U, 0xbd9ff1c7bda94a90U, 0x3de44384bd10983bU, 0x3d8c80993c8c8b96U,
  0xbda68fb1bdf87f6fU, 0x3cadb6503c4504f1U, 0x3de5d2e53dccbe05U, 0xbb1c08a5bd746d10U,
  0x3ce8d4503c23a184U, 0xbca59967bd8640c2U, 0x3ddc8a8ebd8600ccU, 0x3d768bd83ca30253U,
  0x3abc6e343db3b8a2U, 0xbd5376de3bce99d6U, 0xbda8f24e3b2c49daU, 0xbd717131bd24bd5cU,
  0x3e08012c3d9df017U, 0xbe11018c3cfa9235U, 0xbdf40a2d3d59ae2dU, 0xbd62a7d13da3d622U,
  0xbd8417fe3d1d6b5dU, 0x3d2cd62e3cb69ee1U, 0xbdbfa67abd58245cU, 0xbb524a173d28ba94U,
  0xbd1448bebc8e707bU, 0xbd53dbc53d59f9d6U, 0x3c1d93e23d0ededaU, 0x3da81d023cac7688U,
  0xbe1afbdb3b3f05e6U, 0xbcf9d36b3d221ac6U, 0xbc1600cbbd9d6828U, 0xbcc157c5bd330b39U,
  0xbc5b9e7a3d351897U, 0xbd26545d3dbd5cf8U, 0xbbd2c7a53d171b16U, 0xbcf0085cbd512df0U,
  0xbdb05028bd545cbfU, 0xbd54d7fa3e022d91U, 0xbcf61297bdf9d3c0U, 0xbdefa666bd23de9eU,
  0xbdc6e71f3d114ce3U, 0x3cd3c1afbc4128acU, 0xbd8571d4bdf856ccU, 0xbcdaf1b4be0d98cdU,
  0x3cf909a4be08a285U, 0xbda3cf24bda209b1U, 0xbd377a5d3dd2bfc6U, 0xbc7155a83d6470e5U,
  0x3aea99093dafc8aeU, 0x3d4c9e1b3d39236fU, 0x3d4e01d93d74222dU, 0xbaf803183c5fe348U,
  0x3ce129063c8d270aU, 0xbbdf33cfbd925137U, 0xbd377c85bd0d312fU, 0xbde4af923dd0495dU,
  0x3d3e8adc3dd8037bU, 0xbda56e5bbcd0d120U, 0xbcc9510e3dd1fcf0U, 0xbc3de6eb3d396ddbU,
  0x3e0bdcca3deb8362U, 0x3d5020d03e232370U, 0x3d91b4f0bd57902cU, 0xbc2279afbd9573c6U,
  0x3d211df4bd64c201U, 0x3da640d1bb89d882U, 0x3dffa7db3d200b55U, 0xbd1a188f3d164ff4U,
  0xbe331ce3bdeaf0c5U, 0xbdfa26e53d74391aU, 0x3ba07f663d9eb097U, 0xbdc816b73d7333b2U,
  0x3cae43813d94f72bU, 0x3d2a0c083d7e62b2U, 0xbd9d72edbe26b8cbU, 0x3aeaa3b0bd9351bfU,
  0x3d3f85323dc7c4bcU, 0xbe11b2b4bd9590f6U, 0xbdabdd08bd7820f7U, 0xbda9a5623d4eac54U,
  0x3d64b74bbd1485c6U, 0x3d4363143cb458b1U, 0xbe1ee454bd8de60aU, 0x3d336104bd908882U,
  0x3dd7afc23d208e25U, 0x3d708f143d6f9da3U, 0xbe7341573dc0646fU, 0xbd98f023bd82e6efU,
  0xbd72b3a1bc1d1625U, 0x3de33141bdea880eU, 0xbda15511bd073029U, 0xbd59447cbdd4dd5bU,
  0x3d0927193c1fe433U, 0x3dde57a83c677770U, 0x3c1f7390bcd6d434U, 0x3dc87f60bd84f0eaU,
  0xbdae69133d3f44d3U, 0x3caefa74bce54a71U, 0xbdb4bab6bce9887bU, 0x3d3276c2bde6fbdaU,
  0x3d247a243ce94a6eU, 0x3e0bbebabe182dfcU, 0x3d4c3b2fbdd0c77bU, 0xbdd5d372bd7b8583U,
  0x3dcbb399bd8cb7c1U, 0xb977c99abc3d1a56U, 0xbd9835873a6fd00dU, 0xbd4582ed3cf83c0cU,
  0xbd852ae63da155fdU, 0xbd891c24bd7c7218U, 0x3daf12a4bda07373U, 0xbcaeb728bde2f0b1U,
  0x3d60fdfbbe2c1636U, 0x3d6e0a96bd87f4adU, 0xbd0a8d39bd893dcaU, 0xbdd253cfbde412cdU,
  0xbd94f5b8bdd74682U, 0xbe0ad196be28aa1aU, 0x3d45cde43c84f671U, 0xbe1da0c7bc9a3a37U,
  0xbdcfdce4bd8eede8U, 0x3dc8401bbc8c8899U, 0xbcf9a3223cdedad2U, 0x3d8e6bc8bdad8b13U,
  0xbd2482013cb7326cU, 0x3de753debd1f9c3eU, 0xbda0aee13b6146d6U, 0x3d88e23cbc3f31d6U,
  0x3dc8cffa3ddbd4e8U, 0x3c3783353cf79d82U, 0x3ccfc28d3d815ac5U, 0xbd49ed3b3d87237aU,
  0xbd3451d53d2ca833U, 0xbcc48e253d5ec239U, 0xbdd7ec593e0e175dU, 0xbdc2edc8bd9569edU,
  0x3dd5cd873dc605dfU, 0xbdee571e3e0d7743U, 0x3d409284bb90a999U, 0x3d7cabcabd873ee4U,
  0x3e030f753de49b62U, 0xbcea01683dde1307U, 0x3b4c2da93e2176baU, 0xbdb2fc153cd698b8U,
  0xbe0efcf63d1a1eb2U, 0xbd01572cbcfe7e7aU, 0xbd8784f9bd07ee12U, 0xbd891660bc959b9cU,
  0xbd8aaad7bdcf22f1U, 0x3e0d4dc4bca3939aU, 0xbdbc27ebbd8a9b22U, 0x3cc5e574bd15f7e4U,
  0xbdbdf154bdd91d9cU, 0xbd8afd9bbdf0b956U, 0x3cd64b62bdb4d67eU, 0xbdb7616abd0b0692U,
  0xbd9dfd683d930d0cU, 0xbcd8cdb8bd70b939U, 0xbd203d123bb1ab7aU, 0xbd8cf76e3d3ab1cdU,
  0xbdc571133c3c4905U, 0x3d3ede42bd3390e7U, 0x3daae7a8be08f1bfU, 0x3cdefe56bc9fe29aU,
  0xbcc5abfa3cbb9e5eU, 0x3c9f62e9bda899d7U, 0xbddb5e2abc2c6983U, 0xbc5541553dca25d3U,
  0x3d3212a73d45dc3eU, 0xbbf7362dbd145a6eU, 0xbe1f948fbdf256b3U, 0x3ce9ab98bd61d70aU,
  0x3ca8d07cbe584b66U, 0x3d751635bdd05405U, 0xbd831a9dbdb1229fU, 0xbd0bbcdebdbd5246U,
  0xbcb2d297bd811b92U, 0xbc38e421bd8312f4U, 0xbd24d7b43d845ca7U, 0xbddc2554be14fa1bU,
  0xbd2d390abda7751cU, 0x3b5e28e9bcb1972eU, 0xbbd99f9dbdd13786U, 0xbd919ae0bde61317U,
  0xbab0966dbd94a9c1U, 0x3d8778be3c39bfbaU, 0xbd9ad7673e01fd89U, 0xbd94aab2be0cd0d8U,
  0xbc9624533d39f90aU, 0x3d0a8310be048c9dU, 0xbc82d12cbdce379eU, 0x3c6074e3bd2d96adU,
  0xbcbdc23bbd6ae8e6U, 0x3cc33cd7bddd8086U, 0x3deeb5c13cf2d68eU, 0x3d0f090dbc924486U,
  0xbd0277503d940dd4U, 0xbc99123d3d3d0039U, 0x3e131d693a056cc5U, 0x3cce03f3bdd7b976U,
  0xbe43376fbdd0c28cU, 0x3c722c293d785185U, 0x3b4c3c76be368e49U, 0x3dd8882fbcbf66c3U,
  0x3e17fa363cd4dcbdU, 0x3d4ca7ab3dc3c4c5U, 0x3dd4ad12be1f9cdcU, 0xbc5d8f5cbd3ab2aeU,
  0x3d53b2793d304052U, 0xbdc50d59bd072977U, 0xbdcc81e43e1bac3eU, 0x3ce30ed9bd75666cU,
  0x3d563d20bcaccd9bU, 0xbdac1fb33d8b2f2bU, 0x3b90214d3cbb7a89U, 0x3dcd47613d6718a6U,
  0x3dd8f597bd2f6a53U, 0xbd81e4a4bc7017e3U, 0xbdbc7eba3d7f02f9U, 0xbde16ff9bd914506U,
  0xbd7674833dd14c92U, 0xbd98aba83c14f5a5U, 0x3dac3a413d9cd6c9U, 0xbcb7d635bda7f3deU,
  0xbda6c84abaaa75e0U, 0xbcaffc453db67a04U, 0xbd973b193d887c5eU, 0x3daae1fdbda1c9a3U,
  0xbc54344abd7b2afaU, 0x3d5cc60fbdc1276eU, 0x3df5a65c3db89764U, 0x3d9d19df386dc0d5U,
  0xbdead23dbd5f9f7aU, 0x3bd1d8393b92c4daU, 0xbd0616b93dce72a4U, 0xbcedf2b7be251387U,
  0x3b4f02efbdae94bcU, 0x3d02151dbde7957cU, 0xbc76b9aa3d8678c4U, 0x3c7faaa93d1491b9U,
  0xbda22e60bdab37cfU, 0x3d59b34b3d8a843fU, 0x3ce287b0bdb20ab9U, 0xbcaa30af3d9c8887U,
  0x3dbd80ed3d8fa73eU, 0x3d4cad79bcdedb40U, 0x3d4e7b25bbc2e0a0U, 0x3b2e83043cfdc65bU,
  0xbdc2632bbde8dd0aU, 0x3c9dfa2d3b2c74b6U, 0x3d2c0a15bc6220fdU, 0x3db2b1053d4a52c1U,
  0xbd8a2c25bcac9683U, 0x3cd8e45bbe14731aU, 0x3d8d355d3bea73a2U, 0x3d2506923d1998ceU,
  0x3bcc17f33db8b0a9U, 0x3c259191bd776af6U, 0xbe350763bdc60f44U, 0x3db83868bd78fd79U,
  0xbe09c54fbd90c6d9U, 0x3d5bba003c9cce98U, 0xbc8ce1d13dadf90dU, 0x3cdee347bd4c735cU,
  0x3d8ce207bd87649fU, 0xbd391904bd416933U, 0xbd74f8cc3d8e0875U, 0x3d8c8eb23dcb537cU,
  0xbe017976bdb3cf3fU, 0xbd08cad8bd0b099fU, 0xbe3a2c113d800dd8U, 0xbd0b3489be14872dU,
  0x3dde93613d1bd591U, 0xbe02b86a3dabf2a4U, 0x3dd8a6803d168897U, 0x3dfd7da73ca9b31eU,
  0xbc584e82bd380395U, 0xbb30aecabc7fcf43U, 0x3d999d5cbd19702aU, 0xbcc8381e3dd8ed05U,
  0xbe19bf183c9ebda7U, 0xbdd556373c73112cU, 0x3d735267bdbd2abdU, 0x3b8db058bc46d497U,
  0x3d44d5573d10e076U, 0x3d9bca6dbb872ccbU, 0x3c6bc40f3ddc7b22U, 0xbdb01e6bbd7057dfU,
  0xbdbfaebbbe1d681eU, 0x3d79b037bd3cda6aU, 0x3d5cdc05bd827774U, 0xbe02ef71bd74224eU,
  0x3dfade35bdadc9adU, 0x3d46516fbd5fbed0U, 0x3d9aef61bda705c8U, 0x3c8e7f773db8d179U,
  0x3decc0073c226218U, 0x3c3cc920bcede419U, 0x3c20dd90bdd7ee88U, 0x3bfb18a13def5187U,
  0x3e1c2778bd90a7c7U, 0xbc8189b93e057363U, 0xbd450c5cbbb6ea38U, 0x3c0556dbbdddbf58U,
  0xbdb99a6abda12ed7U, 0x3d4a6e1f3dd4894dU, 0x3d6c630fbde33852U, 0xbe17e026bd71f490U,
  0xbe0ad9f3bd97b4f4U, 0x3d3789de3d85ffbaU, 0x3d09dddebd1d5caaU, 0xbd47a4ab3dbb528eU,
  0x3d43e8abbca09604U, 0x3d39c2d4bd0a1648U, 0x3db4463abe092c7fU, 0xbdda695cbdf1d07dU,
  0xbc34981dbe0b0829U, 0x3cf76bf23b97e9e2U, 0xbd2ac7353da9cce2U, 0x3db2304bbd8d790eU,
  0x3d6e7d17bdbc4eceU, 0xbbbb3e61bddd8970U, 0xbcee4fb3bcd26b43U, 0x3d3b6d1d3cf4536eU,
  0xbd0a45cdbc27855eU, 0xbdc466833e109b0dU, 0x3d0622653c642e61U, 0xbd5096d3bcd8f221U,
  0x3d5acea03dc4da47U, 0xbd94a7ff3d6110b7U, 0x3e22970d3d5e025aU, 0xbe0056e93d3a13c9U,
  0x3d2628593d89e7e9U, 0x3cc795fdbd229e0eU, 0x3d805492bda6e3cbU, 0xbd4359573daf5888U,
  0xbdd446693c61aa10U, 0x3d66dcc63cb8e89cU, 0x3c9e9e743da9cc4eU, 0x3d2fe34cbd8e476fU,
  0xbdfcbacd3db21c3bU, 0xbd5c729abdc52c2dU, 0xbd73f547bd3d8158U, 0x3d61afeabbcf7885U,
  0x3d0e55823dd6e605U, 0xbb6acdf2bd55f4f5U, 0xbc5b8fa83df6d227U, 0xbcc5787d3c259f55U,
  0x3e1e46773d46f413U, 0x3ce5f0263d6d3b31U, 0xbd0976b53d8451c2U, 0xbd8df7f63dfd621eU,
  0x3df1077fbce6ee2bU, 0xbe05bb3a3d7535bbU, 0xbd8d1fafbdb7040aU, 0xbc457725be0d76eaU,
  0xbdf4baadbc1928c5U, 0x3d5350a03ccd2339U, 0xbcff21b5bce6d11bU, 0x3d056776be08c783U,
  0xbdac24213bbb0938U, 0xbd756bb83d974b69U, 0xbd97d98fbc93cf6cU, 0xbd1c4fc7bcce31eeU,
  0x3d4cf4fd3de01815U, 0x3db5162c3d9021e6U, 0xbd7607ff3d1f0862U, 0x3d31dc2c3de81b09U,
  0xbda75f083d1a9167U, 0x3c998f21bd6da2dcU, 0x3d8fb44abbc3e4b6U, 0xbdb5f08bbdbf9460U,
  0x3b1817e8bb2114daU, 0x3c88b4f53daab006U, 0x3d6c3c513dbc13ccU, 0xbdc77065bd675770U,
  0x3c4862543d98a544U, 0x3cadc94b3d63ab87U, 0xbda24e5d3d939a28U, 0xbe0284c63dc79cf6U,
  0xbb40472a3daf729bU, 0xbd15cb5bbc76eee2U, 0xbc9bb3113d8d7113U, 0x3da2b669bd81a6c6U,
  0xbcdfd0d63da50ccfU, 0xbdb1f289b8ee027aU, 0xbdbb4760bd9203c9U, 0xbc4aff753d7793adU,
  0xbcb9e4a13dfe66dcU, 0xbdca618b3df74187U, 0x3d797f463db706c5U, 0x3dc39c6abd92a44eU,
  0xbddc36ccbd670e8dU, 0xbd30a2e83db1807fU, 0x3dbb612f3d881038U, 0x3d8cc39ebe004275U,
  0xbe2003043dd41666U, 0x3d697d0abda31061U, 0x3cce8816bdea3a60U, 0xbde0be2c3d1228abU,
  0xbe3e0c6d3dcce5d0U, 0xbbe6fa7d3c8fc389U, 0xbd98ad1f3cd89ce6U, 0xbe0fddd33df9b829U,
  0x3d5f529a3dbc6272U, 0xbda55eafbc47f118U, 0x3d4c58ef3d87d6c5U, 0x3d1e3bc3bd24728aU,
  0xbd27bf14bdb995a0U, 0xbcf4a6e33cc4a14eU, 0x3db7a58dbd653e54U, 0x3ba2832dbd55babcU,
  0x3d0f297f3dd7a8d4U, 0xbe2df7713db31670U, 0x3d848c3d3dfa34c8U, 0xbe1467f83d7bee53U,
  0xbc88bf09bdc76388U, 0x3cb66d8d3d3d8439U, 0x3cb28fc6bdd6b9a8U, 0xbde92a40bc840157U,
  0x3dd1ae153d22d9aaU, 0xbd313454bcb3aa12U, 0x3ca2dfc63daa55c5U, 0xbd3489a13dd3088cU,
  0xbdf21fb93e0ee642U, 0xbde4ccc6bd2f069cU, 0x3b43f638bd842a07U, 0x3d8e9ae33d54cf73U,
  0x3da423f6bd941a83U, 0xbc1431333d244d94U, 0xbcc3bc0bbd8b4870U, 0xbd8299c5bda02d00U,
  0xbdcb41833d10eedbU, 0x3bd4701f3d4a7155U, 0xbd8e52d5bd3ddcd2U, 0xbe292403bd1d543bU,
  0xbd6a21b8bd693b6eU, 0xbd0a03b33da0454cU, 0xbd22a42bbdb44b85U, 0xbce7f9a5bc5057c7U,
  0xbdac0ebfbd62d57aU, 0xbda01f1a3d763c21U, 0xbd0fdce1bd194e20U, 0xbdba959fbdc58007U,
  0xbe0bb68a3d135dcdU, 0x3d9de9153d44b44cU, 0x3b181a2cbd9976a2U, 0xbda944e63c59cc75U,
  0x3d995e36bdc0054fU, 0xbde75ffcbd12cc41U, 0xbdb63e313ddfcb1aU, 0xbbd3b6a03cd14cefU,
  0x3dd4e4313dc93d4cU, 0xbdf1d5653e01e131U, 0xbd94b2d53d09d0d8U, 0x3dae74bb3cf449f5U,
  0xbdff17f7be0ddcf1U, 0xbc95ab79be2ddb18U, 0xbc95efacbd1b1b47U, 0xbd72f086bd918c32U,
  0xbcb78fbebcddfcd4U, 0xbc9fe217bd1eb1c2U, 0x3c5ba5b3bde5b500U, 0xbca7d4553ccae978U,
  0xbd8d951bbd89ce8dU, 0xbd2f2feb3dae8065U, 0xbdacfccd3decdb72U, 0x3dbe2c44bd450fb8U,
  0x3df05d9a3c7f28afU, 0xbde65c173d1c34efU, 0xbb51dc483ce38984U, 0x3dfe374d3cf768e2U,
  0x3ccaf344bc61e082U, 0x3d6e43953d871111U, 0xbd9090a63d22fbbdU, 0xbd9dcd143de66429U,
  0x3d65d89cbd95c2aaU, 0x3d971ba03dc0bc3cU, 0xbd69c08abdde53deU, 0xbdb9601cbd952df3U,
  0x3db8d0843dbadfa9U, 0xbc848b233dd3a838U, 0xbd52eea23d589207U, 0xbc5025173d8aaaf7U,
  0xbc8cab92bca837f2U, 0x3a06b1b7bdc3b0e7U, 0x3d960f423d4e1b60U, 0x3e0bae06bd8fbf35U,
  0x3c3b2fb13dcaac6aU, 0x3d52f41a3cfabc01U, 0xbc9fda61bc4b7cbaU, 0xbd35bbf3bd18d249U,
  0x3e21c2353d8773e1U, 0x402effa53990378aU, 0x4015231d402a479eU, 0x405caed9406c3a77U,
  0x408132284058e5bfU, 0x400dc0bc403ec189U, 0x4070bb914020eda3U, 0x409664a54022cde5U,
  0x402e14f7402e0092U, 0x40762c8140825fc6U, 0x4045769e40395144U, 0xbeeacc35403ca1e8U,
  0xbf0e03cebf178a54U, 0xbf207da0bf1ffb7fU, 0xbf777b36bf4d4abdU, 0xbf1d8058bf095e54U,
  0xbf5bed92bf32df2fU, 0xbf818210bf17f9a5U, 0xbf24d75ebf167c0fU, 0xbee420dabf44feacU,
  0xbf5f5e37bf23a224U, 0x3d25d5c2bf229e8fU, 0x3c893b90bcdf6eebU, 0x3d1d3d5dbb237af7U,
  0xbd476f0d3bf7cef1U, 0x3b2cbba33d01e8dbU, 0xbc809f193bef8d56U, 0x3c8ba9853b9d69c6U,
  0x3cdbce423d220234U, 0xbcb3b6d13ce1840aU, 0xbd0ac3a63ce489d5U, 0xbbd33bd73ba3a2adU,
  0xb9f425c53cd4c090U, 0x3d8e55a53b8769f9U, 0xbc1557bebc2b81f3U, 0x3cb82e843ceb6022U,
  0xbc276ae53b5ca907U, 0x3a31c66c3bc1b296U, 0x3c16a1b7bb53ce60U, 0xbb8fd3423a914988U,
  0x3cf9f9163c32776fU, 0x3d2db6353cd5edfbU, 0x3dc46ed03d0cac7bU, 0xbc7a7d5dbce8fe02U,
  0x3d9718103d3e4348U, 0x3cb94785bc619f00U, 0xbd454cc43d4ce387U, 0x3ce690b63d57ce5fU,
  0x3c826b713d674e71U, 0x3d910464bc833a3aU, 0xbc3dc0043d1dec1dU, 0x3d6df9863be88dcaU,
  0x3d27b508bcd60d95U, 0x3d47086c3c25d3a4U, 0x3cfaf3e63bb2341eU, 0x3d247fcf3d11665aU,
  0x3d81a44c3d013f5bU, 0x3c331e653d25586fU, 0xbb5877233d8cc0d1U, 0xbd0adabd3d899f23U,
  0xba968e903ce47154U, 0xbc8c54c83d220c3fU, 0x3c8149d6bbffc3e5U, 0xbbfa6f5239105c40U,
  0xbcaa33393d58b387U, 0x3d9f47b73c62e838U, 0x3985f2133d0427f4U, 0x3bb05abb3d2f3d31U,
  0x3cc88724bc63d967U, 0x3cf16fd03cc3977dU, 0x3ceb09c63c931b54U, 0x3d12ffa43c9d9f8aU,
  0xb9cffd973d240ea1U, 0x3d2468b03d87020cU, 0x3c95dc1a3be9bd22U, 0x3d5bef833d7e6fd9U,
  0xbad798d73d0dbcb4U, 0x3d2721f13d35ef70U, 0x3d2eb0bf3d6bc6e5U, 0x3c44d8893d6e0714U,
  0x3cbedc9c3cfb9ce2U, 0x3d330eff3d13bb1eU, 0xbcf2fcba3c069f06U, 0xbbb7dfe03d21d9afU,
  0xbc9bee1e3d2bbfcaU, 0xbc7e3147bc300e2cU, 0x3dc124c33cc11164U, 0xbccc5f7e3cbd608cU,
  0xbcd97a8c3d88522bU, 0x3c6be8f5bc3a69f2U, 0x3d4f6e6d3cbfedf7U, 0x3c30a5eb3cce9b3fU,
  0x3da9a0a13db3e6efU, 0x3c819a99bcd92acaU, 0xb945c6f4bcf59860U, 0x3c3869963cd0253cU,
  0xbc4226fd3ce8dfefU, 0x3c2ac4fb3d02baa9U, 0x3c32474abc92346fU, 0x3c5d4ef93d414eb0U,
  0xbcc97cab3d867e22U, 0x3d3d10673d046b66U, 0xbcc451183c785bdcU, 0x3da3b9c43d1d6918U,
  0x3dd7101a3bb84e13U, 0xbd98dfe13d31bf76U, 0xbc4c7578ba80b4fbU, 0x3b2c5ebb3d230266U,
  0xbd04be8f3d27413eU, 0xbc9063663b3f14d0U, 0x3cab9cddbcdd1a71U, 0x3d8eae6d3b94c583U,
  0x3c83eccd3d8f7674U, 0x3d8f93883ca3f9d4U, 0xbbeae700bca33270U, 0x3c9cf34ebc9999e2U,
  0x3a5fcaaf3b4cd236U, 0x3c0d53203b0e69a0U, 0x3bef7c7bbb6256d6U, 0xbd227714bc7b8ab6U,
  0x3d213cf13cd25b8cU, 0x3b0f23e9bc839073U, 0x3be68bd43ce7e7b3U, 0xbcf6a7923c7007b1U,
  0xbcb47cbc3bff9cf7U, 0x3b78cb38bcc5535cU, 0xbcc67bc0bcc21e4cU, 0xbaaf8bdb3cb3b347U,
  0x3c150d9c39dde74cU, 0xbd0575a2bcb97171U, 0xbc4e9cc6bcbe8c83U, 0xbb152d69bc3577c4U,
  0xbcc1f092bb169cadU, 0x3caa7ba5bd8b91c0U, 0xbc032bc1bd3d5e90U, 0xbb29c520bca7ff86U,
  0xbd1848d1bd44098dU, 0xbca5dde3bd398410U, 0xbc16f393bd5d0032U, 0xbd2e085d3cb8316bU,
  0xbd2a3032bd81fb77U, 0xbdedf702bd35a3d9U, 0x3cec218abc92f633U, 0xbd07d299bd45a1ebU,
  0xbd664e803a64af6cU, 0xbccd6f2bbcc562b1U, 0x3bf56842bc4a8f69U, 0xbc0b5a39bda12954U,
  0xbd89db833d15aecbU, 0x3d5559e63c8715e7U, 0xbdce7d85bd2abaceU, 0x3c3eeb35bc223d60U,
  0xbc6adb63bc45456dU, 0x3b9c09683cc0f341U, 0x3c6782ccba02b611U, 0x3b3603ae3c430cafU,
  0xbc59caca3d206322U, 0x3d0e480abb08e73fU, 0x3cbfd315bc019c7dU, 0x3c9aef983d777f12U,
  0x3be16476bc000c88U, 0xbce0ce113c581ab2U, 0x3d24c3fd3c211785U, 0xbd223b773ce00ce1U,
  0x3d2d282d3c5f22edU, 0xbbf251203cc398cdU, 0x3d0dbfaa3c801b86U, 0x3c8f1c7d3c852486U,
  0x3d106a2abd01bea7U, 0xbc6a13f33c7a5f8dU, 0xbad811d73ce4ff89U, 0xbc8d232e3c2892cbU,
  0x3cbe34643ba3b97aU, 0xbcc5c444bb53de4cU, 0xbd13d1c83d0a3dcaU, 0x3cd094373c1f4bf4U,
  0x3c34f225bcef0940U, 0x3cbe16453d3cf522U, 0xbbe1a2f5bd075d18U, 0xbc8521e33cfc6a2aU,
  0x3cbf8cd53b81b431U, 0x3bb2a2cdbc332354U, 0x3d3897f8bc8f26edU, 0xbd652e65bd254b6dU,
  0xbc2b4af53c94d4a3U, 0x3be2b3ecbd0e86c6U, 0x3cc3fd963c9b494fU, 0x3cb294f93ce3d0c9U,
  0xbc29ef57bc2937ffU, 0x3cba8f7abbbc9b9fU, 0xbb2f60e23d09de40U, 0x3c8c46603d10dd0eU,
  0xbc144d2ebcdb2673U, 0xbc39140e3c413947U, 0xbcd42c253d1541b1U, 0x3ab4111a3d2ba637U,
  0x3cd9afa3bd55e98cU, 0x3c75a32b3d12a7e4U, 0x3d2f8f6dbd22cfc7U, 0xbce461193ce0c6c6U,
  0xba1c5e0fbc27badbU, 0xbc8a4ae73c5c11feU, 0x3d189913bc25ea23U, 0xbcb41a18bd009fbfU,
  0xbb7fb8b83c3e72bcU, 0xbc4f32bbbaf5a508U, 0xbcee808d3d263e19U, 0x3bd06ee6bb1d5110U,
  0xbcb3d658bd5e7593U, 0xbcafbfcdbc1157b9U, 0x3cedd0bebd4f1d87U, 0xbd3ee6fbbd6bf4f6U,
  0xbd9e2e0cbb403f99U, 0xbce9cc51bcbe5422U, 0x3d6d8fbcbcb4c302U, 0xbd58ff75bcf4cd71U,
  0xbc90fa1cbc92fa6fU, 0xba11ca38bcff1365U, 0xbc21be7dbc8aa290U, 0xbd00db9db9de3fb0U,
  0xbc8662703cacc51aU, 0xbc1af8ddbd2bcb17U, 0xbce494a23d004d1eU, 0x3c8ade92bc8a5893U,
  0xbd4e42113cea6f66U, 0xba54a2a2b90e2614U, 0x3c7be31fbb825801U, 0x3d190d693c3209f8U,
  0xbcb06cbc3d24d360U, 0x39b4dd343d455bc8U, 0x3c582cf8bd25cdaaU, 0x3c9d83a03cd848e1U,
  0x3d56f13a3c0efd0aU, 0xbd579a823c8bee67U, 0x3cf9c1d23cef8184U, 0x3c8d19c93cb2e052U,
  0x3c6e65533d126535U, 0xb90c5f2fbd0889ebU, 0xbccd59423ac637ecU, 0x3c9b53403c44006dU,
  0x3c3ba6ac3d058d73U, 0x3d8870203d2713aaU, 0xbd5757853ca86ea7U, 0xbccf521e394a780fU,
  0xbced7de4bd17d8a3U, 0xbde6c6e53b21f2bbU, 0x3c23c13dbd926695U, 0xbda462c8bd7be21dU,
  0x3bd268b73c131ec8U, 0xbcb7f1bcbd46ac7dU, 0xbd1500193ca3e366U, 0xbcd9c6a0bd92f4c4U,
  0xbdf1f8e5bc283001U, 0xbb92648fbbb1acbcU, 0xbdb28906bd9641a8U, 0xbd18b0833cc1776dU,
  0xbd16060ebd39d16dU, 0x3cf0b3413c87cbc0U, 0xbd9f2d58bd39e87dU, 0xbd0343fe3be3e502U,
  0xbc1e4975bd93236bU, 0xbcc8284e3cc0831cU, 0x3c6669023cb43b53U, 0x3c8ed7c63c8bca55U,
  0x3d3e6b45bcc0393aU, 0xb9948081bd2343d9U, 0x3c9561a23cb48714U, 0xbca1685e3d6b7aaaU,
  0xbcec16f83bcd9cbaU, 0x3cb0f2303d0d7bd1U, 0xbc7859f13c07e01cU, 0xbc76af06bcbd98d4U,
  0x39d203e83af911ddU, 0x3d38c903bcb246b6U, 0x3cb2e5bc3d1111acU, 0x3d497eeebd1987dfU,
  0xbcf30586bbc86d86U, 0xbc11507fbd5808cbU, 0x3c4f6d303cea68ebU, 0xbc5c9d59bcb10f1dU,
  0x3c527ed43d7945f9U, 0xbc10f796bcd22a83U, 0x3b4924113d3b0adcU, 0x3b1142303d5d34ecU,
  0x3d1990243cf68523U, 0xbd3071eb3d9bc901U, 0x3d308984bbf50d31U, 0x3c981996bc9e1e00U,
  0x3d8798ec3abefbe9U, 0x3ce151ab3c60680aU, 0x3c8d8f853ca5e5d1U, 0x3d39c495bd471cbcU,
  0x3d5056163cb5bbb9U, 0xbd1814d83d12da77U, 0xbce78549bb475eafU, 0x3cf318483b09111fU,
  0x3caf2b3c3c6c2a8fU, 0xbb8f61f23bca66f4U, 0xbc82c5ca3c98bdf2U, 0xbbc109073b322a29U,
  0x3bacc679bd4becd1U, 0xbd07902d3c42324aU, 0x3c9a772e3b4fcd89U, 0xbcf1d0883d15f27fU,
  0x3caa66173d5eac2eU, 0xbc2f3d1e38c81ee7U, 0x3d0fdbd23d37a110U, 0xbd402529bcb6ba33U,
  0x3bb233ff3d533c50U, 0x3d15fbfdbd5c9038U, 0xbc19a417bcfeab5eU, 0x3d2fdf813c8aa1e8U,
  0xbc2cbe493da18886U, 0xbd75d3793cc1adf8U, 0xbbd7b0f43b0870deU, 0x3c3d728fbd7a43ebU,
  0xbcc1f3613d327b64U, 0xbd40a3a33d34433dU, 0x3cc842bd3c543adfU, 0xbbeb16afbb63af55U,
  0xbcc826ffbb9543f3U, 0x3c3fd1f4bcb8fc75U, 0x3bb08602bc8e3de2U, 0xbadb85cfbba07be1U,
  0xbbddfc12bc0ba6adU, 0xbc1b3613bd388238U, 0xbc17a3fe3d7be861U, 0x3ce1c1db3bb49b13U,
  0xbcc802f43ce58f5dU, 0x3d32ba6ebc871460U, 0x39e218eb3b8fe7efU, 0x3d2c77ff3c8da0c1U,
  0xbcd0f0b2bba0dbd1U, 0xba9ac5463d1aa562U, 0x3d81fd55bcd2c33bU, 0xbc7963cc3d4a67b7U,
  0xbb743863bba488c3U, 0x3d17de08bc61ab95U, 0xbc4980be3c8e40faU, 0x3c6417a0bb66eb59U,
  0x3d2481f03c0e41d3U, 0xbd071c83bc91a0daU, 0xbcc92a96bbbf2004U, 0x3d154a1abc12b0a9U,
  0xbca96cb8bbd068e3U, 0x3b904aaa3d099ea4U, 0x3ce3ba423cb6ea44U, 0xbcb755e43bdb3782U,
  0x3c8c848e3bd264c1U, 0xbb6d5470bd52fc94U, 0xbcca1cc13c57b377U, 0xbc5e5e1d3cebbd2dU,
  0xbb7800623d25b604U, 0xbce633fcbb0b3fa6U, 0x3d39c6cebc021f25U, 0x3ab512213d274bd2U,
  0x3af6eb5e3bda8d03U, 0xbc1a136c3d284f33U, 0xbbadefbd3cb99b68U, 0x3d09bba8bc57e5d2U,
  0x3d908ab6bc9cb19aU, 0xbc56eec13c5cce7bU, 0x3cacdd9c3d9aff7dU, 0x3d9611c8bd4c06c2U,
  0xbd8b15723d61dc39U, 0x3c899c4e3ceb7267U, 0x3d80240b3d95c910U, 0x3d0b02b43ccdefa1U,
  0x3cc24f3e3c348250U, 0x3d84bfc4bb73be96U, 0x3be46740bc47a04eU, 0x3d61521a3d0967c7U,
  0x3ce597633ab496f5U, 0x3d57c7a83d0ddbc9U, 0x3c76a79d3cec62e9U, 0x3d35e23d3c58bb87U,
  0x3d8b1d1e3c42357fU, 0x3d4eb78b3d7fe3d7U, 0x3d9ff12a3d047badU, 0x3c91a01f3d0444bdU,
  0x3c94e0c43ce34d8eU, 0x3cf17eca3d1a298eU, 0x3c8f76c43d36c755U, 0x3caaa2483bae904aU,
  0x3cc45ff8badc53c2U, 0x3d0b6bc33d4c5b02U, 0x3cd3693b3da09af2U, 0x3db0edd33cedb946U,
  0x3b892b4a3c3e67c7U, 0x3d6e6819bc644b5bU, 0x3d6853b03ce79e3bU, 0x3ce8610c3d3fe4b9U,
  0xbca33ebcbd0983b7U, 0x3cd450463c99af91U, 0x3d16b1e93d265806U, 0x3b538d213d0e0313U,
  0x3c3fc8453c87e8bdU, 0x3c6d82643d25a983U, 0x3ca525763b965bddU, 0x3ca60d0cbd05631aU,
  0xbc4c7c03bbb48ed5U, 0x3c5d51143d0326ccU, 0xbcfa89bbbbd4b271U, 0xbcaf386abaf586b3U,
  0xbd23930f3d3c083aU, 0xbd758b613c08b2eaU, 0x3d0697903d6200eeU, 0xbd68d2843d95262eU,
  0xba501c3bbca7cc26U, 0x3cae5bcd3d690d4bU, 0xbd0e35af3c1192ceU, 0xbd740b2b3c87ec6fU,
  0xbc025abdbbf36f9bU, 0xbc9df8773c01587fU, 0xbc8d9a05bc967785U, 0x3c8a9d8cbc5d8e14U,
  0xbd37b5f4bc50e4bbU, 0x3ce74c3dbd6642eeU, 0xbd05be493ca5b963U, 0xbd3077023b8d36c0U,
  0x3bf3c5be3be1a8feU, 0xbd6f0914bd59de21U, 0xbd645257bc7351b9U, 0xbd34c3a33c883c20U,
  0xbd955febbbf0c847U, 0x3c634f18bcf2091dU, 0xbd63f268bc1098c6U, 0xbd97c4a63ca0fc6cU,
  0xbc459f0d3d100e06U, 0xbd7a85c0bd96aa6bU, 0xbd3150413cf95b73U, 0xbd16e136bb71e65cU,
  0xbd62b3243937163eU, 0xbd814039bd4f2536U, 0xbbc6b108bd44dfe1U, 0xbccc41d9bb8fb347U,
  0xbcb9506ebd0b38cfU, 0xbd07a5123a7878a3U, 0xbd11d5dcbbacda27U, 0xbb4836393bbd3365U,
  0x3ceb2a12bda8cecfU, 0xbde7b326bb01ed60U, 0xbe033f7cbd8f28c8U, 0xbd0449ddbbf7c804U,
  0xbdc4e3e7bcae863aU, 0xbca4c77cbd7d78ecU, 0xbdacbf653d026ab8U, 0xbd38d3f7bb8e1435U,
  0xbc9c98babd84f665U, 0x3c0b3915bd059f21U, 0xbb6745fabda69679U, 0xbcacb957bd2b282cU,
  0xbc69cb7cbcbaf6e0U, 0xbb34df93bd6f3313U, 0xbb73f4d0bd4ea0f4U, 0x3bf6023abd8ffa9aU,
  0xbc1f90c5bd7ed829U, 0xba87e1e5bcb205edU, 0xbd47035abd0089b2U, 0xbd3579bb3c01fc58U,
  0x3c847d183bb9b522U, 0xbdc3e71e3d04e478U, 0xbd60fc13bd19e7aaU, 0xbc7b82e83a4d9699U,
  0xbd0dd7a3bcc7f220U, 0x3a02d6023b75817bU, 0xbd14be3dbbf7a39aU, 0x3b519550bb936935U,
  0xbd810364bd355efdU, 0xbc8e0c1c3d23ef73U, 0xbd8aa405bcf5aab2U, 0x3d215ab9bd088b24U,
  0xbc870993bd1bcde2U, 0xbd7a2aa0bd9501dbU, 0x3d311f5ebd9fcd48U, 0xbdb0fe1fbd40a344U,
  0xbbaa0742bc54d85aU, 0xbd7e9e86bd2a8fcfU, 0x3d53d1193cf3ef32U, 0x3cb0ce433b83714dU,
  0xbc0821ce3c139916U, 0x3d232a36bc6dbccdU, 0xbd3818413c85bab5U, 0x3bae8549bd80f8d8U,
  0x3bc4d580bd64cf20U, 0xbcfd26ad3b662083U, 0x3c8fa26cbb55194cU, 0x3d557e253d6b44feU,
  0x3cb6e8683aa25dd2U, 0x3c79d7e23c73779dU, 0x3d3c95e73cf257f9U, 0xbcb80a56bd8c8147U,
  0x3d2cc1c33c891173U, 0xbcf25ea43bc99921U, 0x3ce2bff83d4a9a79U, 0xbcdadc633d09690eU,
  0x3d7b98f73d41ca06U, 0x3da627f3bc9cc8eaU, 0xbd4b73cdbc8fbf61U, 0x3d3f61773cd10f62U,
  0xbc0df2c03d78ef92U, 0xbc85163ebc3623aeU, 0xbc805dc73d288f9aU, 0x3ca9cf9c3cc37b3eU,
  0x3cd252083ccc7edcU, 0x3d34869dbc71e6f2U, 0x3d2995913c8f8fbcU, 0x3d8cf6523c80f7cbU,
  0x3c90703fbc80e34dU, 0xbc780ce93d67769fU, 0xbc124a3b3cbb3ae0U, 0x3d5672d43c061bf5U,
  0x3cea3e093ca550c0U, 0x3ce550213d0314ebU, 0x3dd85d1d3d298101U, 0x3d4fe3bbbd12eb5aU,
  0x3bf37c073db05309U, 0xbd29ee8f3d622626U, 0x3df6f9cc3d1848d5U, 0x3d7a5b713d98e75fU,
  0x3c423e50bc80e75dU, 0xbd10c25c3b04ba96U, 0xbdb18ff5b9fddb0dU, 0xbb60c6f53c602adbU,
  0xbdb192933cd56dedU, 0xbcdba827bc20b4c3U, 0xbce551f73d03013cU, 0xbd34e79cbd2502b3U,
  0xbd874df5bd29f597U, 0x3d28e5ee3b34b3edU, 0x3bd34e913c801144U, 0x3b91c127bd3c7a18U,
  0xbc6adfdfbd7d919dU, 0xbd65e6243cb3514cU, 0xbbadd2dbbcdd39edU, 0xbcd1d544bc5e01c7U,
  0xbcdf90a73b1c99bdU, 0xbd5f8703bb84baacU, 0xbcfd60a33adee7edU, 0x3c944696bd41ccbcU,
  0xbd0646d53d691741U, 0x3b5e63f8bcc5c33eU, 0x3cdf75233ce89088U, 0x3d1cf8a2bd028d21U,
  0x3c97b7423c78be15U, 0x3d2afd793c7dfd5bU, 0xbd34db7f3ab3e275U, 0xbca9f1a43c124c02U,
  0xbc541cab3cca0892U, 0x3d436e52bc98d885U, 0xba8acc2bbca6ede4U, 0x3bb0cf3abd909f16U,
  0x3c198620bcbb5d3cU, 0xbd7daf40bd230f54U, 0x3c6d841abcf86433U, 0xbd4d36743bb3d1e0U,
  0xbcb82139bda5c5c2U, 0xbb081992bd7604bcU, 0xbce2427a3cba5edcU, 0xbd3429efbd8ca35aU,
  0x3c21460dbd9879d5U, 0xbcb2a85b3cd03433U, 0xbc9546ecbd345d16U, 0xbd8bc845bd0dbb86U,
  0x3c8b05433b905baeU, 0xbd2ecc6bbd40a6c7U, 0x3d2924923d3d14b4U, 0x3c994f90bd8ce8f3U,
  0xbc0d8b373bff48a2U, 0xbd0e36c0bc93fc28U, 0x3d8b877dbcb285deU, 0x3d28ca13bd65f077U,
  0xbc88b472bdb7aa80U, 0x3d3b2ca53c92e0ffU, 0xbd8a163dbcd43d16U, 0x3d923737bd81bd99U,
  0x3d4d58c73cb59bc9U, 0xbce3f24b3cda3ae6U, 0x3d8c76983d39a457U, 0x3d35f779bcb3ff1bU,
  0x3d857b183d79d171U, 0x3d3a721b3c5546e7U, 0x3c35d9503d630b7aU, 0x3c391156bc2b9152U,
  0x3d1fcbb93d28d3e7U, 0x3d98a41a3cee9ccaU, 0x3d1a60e03b24e5c3U, 0x3cc1954abb6911eaU,
  0x3ce733ce3d9d177bU, 0x3c9d4c7d3c3bcdb9U, 0x3d4e0d3e3d2d7cb2U, 0x3d1de2de3cced10aU,
  0x3d85df583d745e09U, 0x3d7e1d493bf281bfU, 0x3d852d913d1a6265U, 0x3a07469dbd84a625U,
  0xbd4ba40dbd0a050aU, 0x3cd187d83c8e608fU, 0xbc6f44973cc94d1dU, 0x3d3edfb2bbc4b581U,
  0xbca85d063c7ce940U, 0x3cb4dff43d23de1eU, 0xbc88d416bd4b3fd4U, 0xb919f7143d1b48d6U,
  0xbd0b3106bd0275c9U, 0xbd07ec623ced5913U, 0xbd62ebeebd5526b4U, 0x3d25f01dbcb6394cU,
  0xbd319a23bc51df3cU, 0xbd6fa701bd2f2eadU, 0xbd033b40bd41e554U, 0xbd6904cabcb50409U,
  0xbd578a66bb2d1342U, 0xbd08e5553dadbbdbU, 0x3d819b403d7e68ffU, 0x3d8debad3cf91484U,
  0x3d06dc9f3c83d979U, 0x3cdd6e2db9d957b1U, 0x3d33191a3d8a44bbU, 0x3b672b3d3c4d0a23U,
  0x3d8e48473d862503U, 0x3d5e884e3d191c3cU, 0x3dcaee913cd774a7U, 0x3d4155c83d272116U,
  0x3c82721f3aa0d5f6U, 0x3d7f9a8c3dcc2cd9U, 0x3ce9c860bcc391d3U, 0x3d6f82cb3cceebfeU,
  0xbd25c3583d6635d5U, 0x3da60e183cb35160U, 0x3dd78ca23db575f0U, 0x3d78fe81bc6269e7U,
  0xbc01d7f73ba90464U, 0x3c0ffccfbda51c84U, 0xbc07a3a1bb125dc8U, 0xbcdfa0a93b324571U,
  0x3bbe2d433d0fa55fU, 0xbcb2053dbda79c33U, 0xbd03ebba3a025ffeU, 0xbd4ad8a2bc7cdc45U,
  0xbd4485b73c3b28f2U, 0xbb16f108bad7bef3U, 0x3b54a9d33d03eaa9U, 0x3d2ae9c7bd4aaa7eU,
  0x3d05ff61bcbb20b3U, 0xbcecec173bb20e21U, 0xbd6b705bbd156f07U, 0x3c35d7d9bc924c5eU,
  0xbcda727e3d0b3e33U, 0xbd1a1226bd33c8c9U, 0x3cfdaebdbd00b3abU, 0xbd04ed2bbcaf8b71U,
  0xbd8d320bbd9e7894U, 0xbc7b556dbd06526fU, 0x3cb35532bd3dac0cU, 0xbd2f9716bd4c8f0fU,
  0x3c08c09ebda23845U, 0xbc15511fbce2244dU, 0xbd2e21eebcbdfeb2U, 0xbd8a84c1bd44c01eU,
  0xbd1d4749bd1634f8U, 0xbd0bfe43bc40aa4dU, 0xbd13f2a2bd9fe190U, 0xbcef9519bd4cf063U,
  0xbd964d1c3c91747dU, 0xbc2b7c9cbd55fb1aU, 0xbc2eafa53c46642bU, 0xbdd814f9bdad8800U,
  0xbd35fea8bd40f159U, 0xbd9249fd39f6c61cU, 0xbbc779fbbd2810b5U, 0x3c2de483bce09715U,
  0xbab65a993ce5a4d2U, 0xbcdedc53bd559c3aU, 0xbd468785bba07d00U, 0xbd3eef833b11c506U,
  0xbd181161bd25b779U, 0x3cf8aba1bd0ed21fU, 0xbca0f44abcbf3f2eU, 0xbcbdabd83b5215b2U,
  0xbd60af82bcee5121U, 0xbbc11baebd225b5dU, 0xbca76bdf3d0c96f8U, 0xbca214113c88a68cU,
  0xbabe6fb3bd2573eaU, 0xbd893278bcdaccecU, 0xbc83bbeebd6bf4beU, 0x3c180c2b3d243d10U,
  0x3c92be3f3cefa231U, 0x3d0cc47e3b876cf0U, 0xbc1149e0bc6aacbfU, 0x3c83a1f93d57dfa1U,
  0x3c808f0c3ba19040U, 0x3b39bd293d3be931U, 0xbd1eaaea3ccff529U, 0x3cfe546ebcd9bea5U,
  0x3c65877d3ce6c828U, 0x3d2457833d0aca33U, 0x3c96d4bcbce2309bU, 0x3cd849f8bd0b2254U,
  0xbcae7e6b3d22e49dU, 0xbd193d1a3b5cdd25U, 0x3d831c8dbbe0cf1cU, 0x3d5e141d3ce101c5U,
  0x3b9d23893cee1061U, 0x3d424f723c52b25dU, 0x3d0836c33d34ab25U, 0x3cab5f62bd96a32eU,
  0x3d57c7c43c40bfd6U, 0xbca484a6bcc6a47bU, 0xbdb1937d3b3a28caU, 0x3b92a1f9badf7002U,
  0x3ca423dfbc9d57ceU, 0xbd7f143ebd160423U, 0xbc7169183c7e6620U, 0x3c5f2686bcec5948U,
  0xbceccb553ca28b76U, 0xbcadfca2bc48931bU, 0x3d8161d7bcb1eb2eU, 0x3b160a8fbcdf98a4U,
  0xbce0bad4bdca938fU, 0x3cebdebc3caf718bU, 0xbdad7157bd0fb599U, 0x3c4366bebdc15410U,
  0xbc78e9423c6ae8c3U, 0xbd86f0ecbca17d06U, 0xba9e895cbce74590U, 0xbbf1f28abd79f814U,
  0xbd519157bd6ccce0U, 0xbd320eee3b21ccecU, 0xbd6c0291bd89808cU, 0xbd300d7ebd9dfae2U,
  0x3ba0eb12bd0b4ea2U, 0x3c8ab090bcc71bd4U, 0xbce76dcebd99a290U, 0xbd2b3f32bcfeab6eU,
  0xbd7fe62dbd2fdb70U, 0xbce3cf25b496a37eU, 0x3c69606fbd8394e9U, 0xbd8819b1bcdb29c9U,
  0x3c8da4b9bd1eac9dU, 0xbcda1404bc826fceU, 0x3ce37562bcc60078U, 0xbb813521bcfb0a5aU,
  0x3cdb7d213c71cbb7U, 0x3b80bbf23cbc0030U, 0xbd193088bd7f6b87U, 0xbd4f4e293ab4d1cfU,
  0x3b870ac9bcf4cfb0U, 0xbb8de6d9bd03010dU, 0x3cacf204bd24f3baU, 0xbdad92e93c80af1aU,
  0x3ca0c1fc3d195994U, 0xbd2b3244bd7583acU, 0xbd1006d3bd113682U, 0xbc1879c53cc841dfU,
  0xbcbafe0a3cdc935aU, 0xbcc828a4bd939ddaU, 0xbd3889fe3c13a080U, 0xbd4a7d243cf82d04U,
  0x3b570338bd4307d7U, 0xbcffa9cfbd4d4f8bU, 0xbc8350c3bc4a63fbU, 0xbc2e5e513d164738U,
  0x3b65f1553ba10e45U, 0x3c81a8743cce4284U, 0x3d54e1603d5ec09aU, 0x3c80b0d43b900312U,
  0xbca31047bcd61b0fU, 0x3c7bb09c3c3d123aU, 0xbc75781b3d8dcaecU, 0x3c147801bcd45fcbU,
  0x3bdae9f139de649fU, 0x3ca6e5da3ce3ef98U, 0x3d31a0d2bc4aeb74U, 0xbc77536e3d03fb57U,
  0xbd1392b13d0ff399U, 0x3bf326bebc56ec1bU, 0x3d011e363d189ba0U, 0x3c5251043d183cbeU,
  0xbd56eba3bc578d8bU, 0x3b1c84d93d6cfa9fU, 0xbd89a5963c8f75c2U, 0x3d383722bd7d541dU,
  0xbcf64655bcd80555U, 0x3c8a8e293c95111bU, 0x3c9e84c9bc8ab8e2U, 0xbcae53c5bbb0ae91U,
  0xbd01a1c2bc90d6caU, 0x3d2fdeba3cfc7e23U, 0xbc300699bcb6e85bU, 0xbca9746abbe1b2c0U,
  0xbd7d7ad5bd6f7b3fU, 0xbd7f97a33cb6fa4cU, 0xbc81c9f0bcd4548cU, 0xbcbb49b0bcfd90b1U,
  0xbd9293ffbc888f28U, 0xbd4ede313d22f6a3U, 0xb96031213c353de1U, 0xbd9175fcbd33cee5U,
  0xbdb609263a0fb569U, 0xbd02fd4dbb8e24c8U, 0x3c1806d43baf09d3U, 0xbacb2b2cbd8c315dU,
  0x3c95a955bd3bb205U, 0xbd45e402bc2dfd87U, 0xbccd36e03cc5a93fU, 0xbc824733bd095a0fU,
  0xbdd7c7a8bd9f66aeU, 0xbd4e71edbca593a6U, 0x3b08a55dbdb4e7c2U, 0xbd44e773bb7d1569U,
  0x3c0148563c2aef95U, 0xbd902742bc714133U, 0x3974dfc7bd908344U, 0xbd6e648cbd10391fU,
  0xbdaf8157bcebea5cU, 0xbd3553c9bd2be912U, 0xbd0bab5f3918389dU, 0xbcf72999bda650f1U,
  0xbc0a90dcbd2925f7U, 0xbdbbdf75bcd88d1dU, 0xbd0410663cbf1c35U, 0xbcf24d95bd9b719aU,
  0xbdccd0c43c83fbc7U, 0x3ba672cdbc3fdb0fU, 0xbd1090f5bd3ea556U, 0xbd5aad323c8a06e0U,
  0xbca3cad63c97cc51U, 0xbb9360ec3c0a0a88U, 0xbd38351bbc9d3408U, 0xbd85b2233d18a7e9U,
  0xbc89f986bd4f936cU, 0xbc4c0a9ebdb2f554U, 0x3d9eafc3bd2a0985U, 0x3c099db7bd275bf9U,
  0xbc67a6bbbcac3bdaU, 0x3bb64a643c3ec7daU, 0xbd864bedbd38d86bU, 0x3ca69e5cbc19a02fU,
  0x3c16139fbc424fc9U, 0x3b979d29bce4d7d6U, 0xbd6296b7bd8c2048U, 0xbd507a263c13e9d7U,
  0xbd2fb869bc01f5ffU, 0x3c7ce99ebd5c914dU, 0x3d16d09ebc794499U, 0xbafc819abc9e549dU,
  0x3c8319a3bc962d29U, 0xbc2fb0d7bc891b3bU, 0x3bf931853d35d664U, 0xbbd9f61a3d077a73U,
  0x3bd898a2bd01506bU, 0x3cc943293b268f94U, 0xbb65cb3bbae6810eU, 0x3c595164bb1e6354U,
  0x3d244738bcd5424fU, 0x3be46efa3cca036bU, 0x3c81e35b3c944bbdU, 0x3caf4fdebc0f5563U,
  0x3cebc8663b841ff8U, 0x3ca6f2333cb4762aU, 0xbbb3afa43ba292f9U, 0xbd02beb93ce98b7fU,
  0xbd1169e13cd58dd6U, 0x3ba9f522bd38fc06U, 0x3cea43513cb4587fU, 0x3d89932639966026U,
  0x3c3638973b77f880U, 0x38b2ae323d09066fU, 0x3bbe41763d2aa11cU, 0xbc804a493bbc414aU,
  0xbc9da62fbd09488dU, 0x3c8d11513d232effU, 0x3d29b9adbc03a19dU, 0x3c8ccd023d50e024U,
  0x3d35cdd23d008257U, 0x3d79b8363bbf0bd5U, 0xbc5e79ee3d55d2f2U, 0x3c80051a3d9651b9U,
  0x3d8e0cac3d260567U, 0xbc3203113d346178U, 0x3c3dde993d1fcf62U, 0x3cc2e8a03c929b96U,
  0x3d3e7dfd3d46a28cU, 0x3d40a9c33d240d88U, 0x3c9472733d8c0b86U, 0x3d6361143d718c05U,
  0x3d9c36e33d7eb731U, 0x3cc9e3913cebfe47U, 0x3d63cf1d3d0398d3U, 0xbd17459d3af738b4U,
  0xbc416edebca2c5a2U, 0x3c660e76bd736a29U, 0xbc8def6cbb6b705cU, 0xbdac57c23d1d2007U,
  0xbcb3afc8bc464f06U, 0x3c300a0fbd0d3c22U, 0xbd98d2fa3d6fed98U, 0xbd0cfd483b3bbedcU,
  0x3cf30c1dbd23a835U, 0xbc016572bd5f65f3U, 0x3cc5c8e33d088538U, 0x3d2d81083c3a6bfdU,
  0xbcd3355a3d212426U, 0xbd775e32bcc0ba4cU, 0xbd969d343d257b28U, 0xbc578fb7bd2fd30eU,
  0xbc4be103bcc3faceU, 0xbd7e5103bc49cdd1U, 0x3dae92c63c2ad859U, 0xbc8c4a7cbc9e1b4aU,
  0x3d00aedd3c670c02U, 0xbd3b86f0bd94d765U, 0x3d3683fabc51b661U, 0x3c8ae88ebc0c3a20U,
  0xbd609051bbe9a076U, 0xbd202210bc7bbbf2U, 0xbd2a8d2ebc677c4bU, 0x3b7f03ddbc42d0b5U,
  0xbcb76003bd2590d8U, 0x3bc603c8bd783a73U, 0xbd1d39d2bcdcb58eU, 0x3b6ec96dbd7d1db9U,
  0xbc8adcb1bc6f468fU, 0xbd18c99ebd040a44U, 0xbcfddd173c1d0bffU, 0xbc87971bbc3532f3U,
  0x3c3d71183c03755cU, 0x3cdc1b50ba32dcc7U, 0xbb8ce132bd4ebb34U, 0x3d35a2133cfce5ccU,
  0xbcd576b0bce66131U, 0xbc932af13cfa9d48U, 0xbc8edc0fbdac56edU, 0x3b9df7093b7d39f7U,
  0xbc82210d3c75ad42U, 0x3d08371f3c7a60d8U, 0xbcaa1ce739207912U, 0xbcc31412bd0e163aU,
  0xbd5f70c73cd07610U, 0xbd25ecadbc1f7ca0U, 0x3b86c823bcf5b075U, 0xbcd94f5ebcc3b8c7U,
  0x3d29e03bbcd7c8b0U, 0xbd71ed7f3d717341U, 0x3d581e9bbd9179e7U, 0x3cc35ba7bbe16ba6U,
  0x3d2b46453bd17817U, 0x3d5ee3183d430576U, 0x3d8db8463d903382U, 0x3c7b3c363ceabc78U,
  0x3d4973923d859d9eU, 0x3d072d6f3d7133aaU, 0x3b8d771b3d7dcb9bU, 0x3d4c03ac3bc95713U,
  0x3db9863d3d547917U, 0x3d63cdbdbcc78195U, 0x3bc24fc6ba0d5e29U, 0xbcaceb883c5c1a6bU,
  0x3d564c023c8d3bc3U, 0x3db9bc0b3d55677bU, 0x3cd9cd983d353662U, 0x3d9e097a3d0da105U,
  0x3ddf4ec83c8c4bddU, 0xbcacaf47bdaffec8U, 0x3c06b3333ccc7432U, 0x3cfb89b8bd628ac5U,
  0xbbf28b133ca272dcU, 0x3cebae2abcd4b187U, 0x3c0311b0bcc122cfU, 0xbd0efb1cbd0e1e28U,
  0x3a6ccecf3cb2c3b2U, 0x3c3cd024bc279ed9U, 0xbbea15ecbd2cbfedU, 0xbd63a9f5bcc87f98U,
  0x3c0dcf2fbb631eecU, 0xbcbe65b0bc066d12U, 0xbc9215cfbc91c27eU, 0x3a752631bcb8b5e1U,
  0xba54c729bd185dd5U, 0xbd72c80cbcfabf49U, 0xbc0cec643ba6557bU, 0x3d59ffc73cbbfe36U,
  0x3d3019a23d890c52U, 0x3d52aa3bbb4f49b8U, 0x3d905afe3d26a5dfU, 0x3d9a9a1b3c7c4b36U,
  0x3d29f4d43d510278U, 0x3d830a25bb437c73U, 0x3cb114b73d2a4099U, 0x3d1a32e239e5e404U,
  0x3cf680ceb965073fU, 0x3d8f5be63d6b9ecdU, 0x3d28a3013d8cb93eU, 0x3d8f2d5a3d283c74U,
  0x3ba4157e3c848138U, 0xbc03573e3da7c0f1U, 0x3d90719e39d7c553U, 0x3dab7d7a3db9b857U,
  0x3d9d6c1c3d44f102U, 0x3da38b3db9f74dacU, 0xbc413737bbe935bdU, 0xbca6011e3cba88b6U,
  0x3cf433083c5779acU, 0xbcd2ca8d3d1ae69cU, 0x3b2f9f5abcd8f6d3U, 0xbd078fb1bccc4a76U,
  0xbcf852cabb8cc334U, 0xbc80883e3cbd2d5bU, 0xbd053baa3c619217U, 0x3d15b0ef3c95d61bU,
  0x3d62a02a3c03958fU, 0x3d07856fbbec1f09U, 0xbbbcc3f7bc28230bU, 0x3d04a037bceecde9U,
  0xbbafb1cebd06f7e6U, 0x3ba9c8403d15a186U, 0xbcd0e1c6bd29d6a1U, 0xbcc7b1a13d2350b0U,
  0xb7326736bd4f81d8U, 0xbd24ce7abcea13efU, 0xbc2e8e2bbd0dd2d1U, 0x3d0f7ff9bd0fb454U,
  0xbd0e0757bd3add2eU, 0x3d00e0cebd80eabdU, 0xbd72c763bd53323aU, 0xbd5d418b3a95b232U,
  0xbdc896ee3ba41997U, 0xbdf068a7bd42774cU, 0xbd111babbcf5b724U, 0xbda3bfe8bccf252aU,
  0xbd89451fbd05fd30U, 0xbc78fafa3ae0482eU, 0xbc870b8dbd1fdc7cU, 0xbb2c717bbca073d9U,
  0xbd949eb1bda75c0aU, 0xbd8ae2a9bd360c60U, 0xbd1177e9bd10a8ebU, 0xbc7ff1f3bcd7d286U,
  0x3c5161693b21294aU, 0xbcc2b191bd3484b2U, 0xbc226b7fbc917201U, 0xbd3e377abd63dcaaU,
  0xb76cb66939e296beU, 0xbcc4e3b93c8a5f23U, 0xbd77409d3bec0894U, 0xbc85bbf6bcde7857U,
  0x3b56ca1fbce9c6deU, 0xbd29c526bc967255U, 0x3afebc37bbd312ccU, 0xbbdf2440bce6649fU,
  0xbd8945953bdd8394U, 0xbb0ccc593a4d6832U, 0xbd49205cbce3d5d1U, 0xbd0f84783bc03ff1U,
  0xbaa896f4bd232397U, 0x3cb4f80b3c690f04U, 0x3d3e3eaabc90819dU, 0x3ba34129bca4723eU,
  0x3d10335f3bdb6378U, 0x3bd25b553cafd29dU, 0x3c7cc01e3da4d6efU, 0x3d35be7d3d513101U,
  0xbca0f0dd3d68c9dcU, 0x3d11e4f5bcbb2447U, 0x3d91781dbb8e4496U, 0x3d67c941bc3a1f07U,
  0x3bcd9dd43d4bb11eU, 0x3d8826b3bd197988U, 0x3ca4ace8bceb3fedU, 0x3d07c6abbb2c0d41U,
  0x3d4e1fa03ca2a650U, 0x3d0ffa85bc328611U, 0x3c4693883bf6035dU, 0x3c3a8d9e3d077302U,
  0x3b17dd553ca9787eU, 0x3b62765fbb21fcadU, 0x3c3d1ccebbe313afU, 0xbd4bab67393751c7U,
  0xbd5d1e1c3c858c26U, 0xbca7ee303be474b9U, 0xbcb53413bd3889aeU, 0xbba472da3c406107U,
  0xbcd4a1e13cc984f5U, 0x3be00113bd48dad8U, 0xbd651b533c9fe2e1U, 0xbd899b53bd4a063fU,
  0x3d207973bccbcd74U, 0x3d2c03c23cecd70cU, 0x3cdd3887bd0466a3U, 0xbc7586b73d3a6e61U,
  0x3ce3c76abd7d95c4U, 0xbd06eaa2bd7aed7bU, 0xbd07a89ebd07bdcaU, 0xbc4fd384bd7d8f6fU,
  0xbb52010c3d083858U, 0xbd9f4b81bd4ab0ffU, 0xbd0ae41fbb3e0e42U, 0xbd0fccf7bd2ecc53U,
  0x3bb9102fbcb8c127U, 0xbcb637acbd714a1cU, 0xbd81b145bc36a106U, 0xbc3d37ff3a25486bU,
  0xbd5861a7bc45ea50U, 0xbd4e4f19bc5b4e34U, 0x3cd61a57bd4be5ccU, 0xbcec5542bd4038d3U,
  0x3c9f0feabd9098f3U, 0x3cbd76b2bcec51bbU, 0xbb5c26e6bd81fa2cU, 0x3d09c823bd0c1128U,
  0xbc349cdbbd716fa0U, 0xbd49538fbcfb5e29U, 0xbd153f79bc839c27U, 0xbcb14f813c9f2a08U,
  0xbdaf1ff1bcd95a29U, 0xbbcf5dfe3c263334U, 0xbd20f7bcbcc1876eU, 0xbb2be52bbca387c2U,
  0x3b20db283d6918b6U, 0xbc8adfd0bcbdf6deU, 0xbcb9b83ebc6bf347U, 0xbc9058f8bd3ef120U,
  0xbccb58abbd5443e6U, 0x3d3eb7983d155655U, 0xbc3c47dcbd3d1d77U, 0xbd2a293e3c7e4a61U,
  0x3a299b2e3cc7fb42U, 0x3d0e5e11bc084e2fU, 0x3ca8110dbd3d9bb6U, 0x3c144e22bda31c18U,
  0x3c8470513b7a1656U, 0x3cab5f6e3b367311U, 0x3d63892a3d02a1d0U, 0x3cfd0433bc9748cfU,
  0xbd872f273cae67fdU, 0x3cb0a1dbbce6c4d1U, 0xbba37139bcb69a84U, 0xbccd472f3d33039fU,
  0x3d6ffbadbce7b744U, 0xbca5258f3c43e3c6U, 0xbc4bf5763cc3e35eU, 0xbc8a58d5bc42f759U,
  0x3cf9a2193bcb2175U, 0x3c0db2f43c081564U, 0xbc1dc9983d885ceaU, 0xbb90f83b3caa83bdU,
  0x3bc23b90bcb87bcfU, 0xbcb938f5bc956628U, 0x3ce7fd0e3cfd8ea1U, 0x3c591a273bfa830dU,
  0x3d09d3213d030553U, 0x3ce4a976bcea52b4U, 0x3cc856863d12e153U, 0x3d05ea9e3bdc1b63U,
  0x3ced98f93bc9c8b9U, 0x3d0b81c2bc0a7b59U, 0x3d0e94e4bd377ba9U, 0x3cf825ac3cf1e55aU,
  0x3ce7121fbcc34d8cU, 0x3bb7d6dbbcad4440U, 0x3bc2d6713c01c8aaU, 0xbd2ad2173d23eb5cU,
  0xbcfa28533d1364c1U, 0xbc4743d03c7d3c35U, 0x3d0467f53d74b734U, 0x3d35a8483d230579U,
  0xbcbc15723cab298bU, 0x3bb551563d71ef76U, 0xbd3ade213ac2fb1dU, 0x3d13ae0bbb8529eaU,
  0x3c97ed49bc1b84aeU, 0x3d1847b23d3cef1cU, 0x3d746f2b3c969591U, 0x3d45c0963a692690U,
  0x3ca16e28bc53b472U, 0x3d5c571c3d3717aaU, 0x3d9dd7e03c16918dU, 0x3cd4aa2a3cc493c5U,
  0x3d6d3116bafdd5c6U, 0x3cdce9653bdbb1acU, 0x3d05bd0e3d0e7453U, 0xbd27fbbfbc4e899bU,
  0xbbda3fb13ba127b4U, 0x3dd6c9963d37508bU, 0xbd045ff03bfdecb1U, 0x388c2b553ad48858U,
  0xbc1c0391bcb603a3U, 0x3d49c00f3d62ec0bU, 0x3db2d55ebd670626U, 0x3c706d143c14295bU,
  0x3d7de3a43d912efeU, 0x3cb094a2bc757867U, 0xbc7593303d607fd4U, 0x3d5285c23d552971U,
  0x3d1b54683cffd440U, 0x3d6927aebb8bd77aU, 0x3be269e23d921209U, 0x3d4e624e3b38be78U,
  0x3b6ed2173d07c248U, 0x3d0657d13cc6a40dU, 0x3aa4af533d6a5dd1U, 0x3d833187bc8524a8U,
  0x3c3b22a63cd8c2ffU, 0x3d826dec3d41f765U, 0xbd506ccf3d1480a0U, 0x3d5f2c723d185d32U,
  0x3d0e3e063c7d0e49U, 0xbc96c84b3db738e3U, 0xbc68032bbc7acd44U, 0xbbaaf8d83c38681aU,
  0x3d422ace3ced85b5U, 0xbc215b893d8ebd1aU, 0x3d1b78683b893a34U, 0xbd9d02ec3ccf4975U,
  0x3d6758de3d41a6eaU, 0xbc86f3e03cc452a3U, 0x3bb8af60bc4ce19aU, 0x3cf8d2cf3c497dd9U,
  0xbb57b4943c20a008U, 0x3d8de6a73d4d38e2U, 0x3c7506373c5d2c9aU, 0x3d51eced3bf32bb6U,
  0x3b285145bb032f3dU, 0x3b0b78e9bd509226U, 0xbb5b629bbda8dfcdU, 0xbd058c6a3b929087U,
  0x3b2c6f6fbd55bdacU, 0xbbc75866bcdc265fU, 0xbc20e611bc8f8c0aU, 0x3d3b7de6bd5c13aeU,
  0xbd422b8cbd8fb00eU, 0xbcd9b9b1bc0c20e2U, 0xbd3ceccc3d07d160U, 0x3cfe6555bcc24184U,
  0xbc6c35c7bda32d09U, 0x3c81b6cabc887689U, 0xbd78e736bd25e469U, 0xbd5c6cf3bb7a93d7U,
  0xbcec2959bd055c4eU, 0xbd86d127bd3b1bb2U, 0xba61130bbc46e65cU, 0xbca36bad3cf55356U,
  0x3cf767cdbd8e638dU, 0xbe049a2ebb26c2ecU, 0xbc008d313cb18496U, 0x3b92504dbdb38f72U,
  0xbccc60d8bcc22339U, 0xbab9362fbb7b1e0fU, 0xba087b8fbd658fa0U, 0xbd4ddbb5bd4e2bf2U,
  0xbcccfe363d400d82U, 0xbcb3aa1bbdcd8dadU, 0xbdaecedd3c95c126U, 0x3c84bf36bd26e214U,
  0xbdd50d02bd65f57fU, 0xbc691815bd8c82feU, 0xbe13984abd807695U, 0xbd1d34cc3d3b25bdU,
  0xbcbee9bbbdb74365U, 0x3aae13413a791065U, 0x3c2a74e53c88ea18U, 0x3cec7f1e3cee2c09U,
  0x3ce8d1693d1559d2U, 0x3dbd415e3c80cfaeU, 0x3d70b50d3c9f6f0cU, 0x3c98a2273d62b2bbU,
  0x3cac574d3b999eb7U, 0x3d2c6b803cc7c6d4U, 0xbd3b3a173d1b4886U, 0x3c5075f93d4920e3U,
  0x3d6ac5d13a9390d9U, 0xbb3185bf3d02ca61U, 0x3cf7e0af3b96695aU, 0x3c8432563d2f32e9U,
  0x3d6d815b3cfcb583U, 0xbd006b61ba7da4b2U, 0xbc9fccccbbf65da1U, 0x3d3872753bc13d9fU,
  0xbcbae5e7bbf1f6d2U, 0xbb936c7a3ccf3055U, 0x3d422271bcd58db4U, 0xbd814530bb2d3d99U,
  0x3cc8173ebc500995U, 0xbc0d33db3c2964d5U, 0x3d2645823a768e47U, 0x3c3b5613bc4cda53U,
  0x3d44270cbca3df40U, 0xbcc07ff83d482c8bU, 0x3d11e0263c11fdd3U, 0x3ccb78833cbed422U,
  0x3d15f1e33d26f41dU, 0xbc1121c9bcb4b7a3U, 0xbd0e7e01bb6e959aU, 0x3b850f613d44b380U,
  0xbd1e56f93b480f1bU, 0x3d97eda13adf0485U, 0xbce6c2bb3c503d27U, 0x3d6a4e23bd12f0abU,
  0x3bbe60e03d2a9d52U, 0x3c3ca6233d97973bU, 0x3d2bc335bd5f2bc3U, 0xbd1e2f97bca3791cU,
  0x3c565f76bcdd3064U, 0xbbd9668f3c0dc0bcU, 0xbcbfeb43bd087d63U, 0xbcfabd9eba2f66a3U,
  0x3be6e43abcac57e4U, 0x3bc1a42c3c1d5813U, 0xbcc289e63cd21e8dU, 0xbaa85086bd5aefffU,
  0xb94da2f83d7be3bfU, 0x3cccc5d5bbf4aa25U, 0xbb956206bbb4a46eU, 0xbaac9cb6bc48b1a3U,
  0xbcba0997bc300922U, 0xbd6cffdb3ae6d3c5U, 0xbd58ec6dbdd328baU, 0xbdd4030abd514feaU,
  0x3d1327fcbce92d1aU, 0xbd1437c8bdf37124U, 0xbc6e73c73b6e9d73U, 0x3d2da7efbb947a5cU,
  0x3c2173e1bd1f7c0bU, 0xbca58926bcd7eba3U, 0xbc8781603bbfd338U, 0xbd12dce8bca4eea3U,
  0xbdc73dce3ca8a366U, 0xbc040f023bb95467U, 0xbd2a7880bd2e0a6fU, 0xbd0c3279bd042c40U,
  0xbca06bf2bd33628cU, 0xbd014150bbf4e89cU, 0xbcbf3e6cbcad6554U, 0x3d2a64f33c605070U,
  0x3c3377a9bccdce44U, 0xbd18d9a6b7e1e685U, 0x3d449f7f3a9881f8U, 0x3ca10f3e3cfd0d66U,
  0x3cbcf15a3cff03f4U, 0xbbb52c91bd2d4674U, 0x3a1bcb863d192dbfU, 0x3c7942563c65614bU,
  0x3d8c76e93c5317faU, 0xbcb329ed3d1c8812U, 0x39c8588c3d1dade0U, 0x3c7c170f3b1b5ce4U,
  0x3cfd9f5d3d50c771U, 0x3d6cf1cd3d0c30b0U, 0xbb2137153b84d231U, 0x3d38d1f6bb450786U,
  0xbbc7a1393c2a3c80U, 0xbcb34dd4bbb520c5U, 0xbd7f908ebc985f10U, 0xbcceccb8bdedc152U,
  0xbe1256a4bc854835U, 0x3cd47a5dbd5565a7U, 0xbd212da3bbf3952dU, 0xbce7e2efbc0c3204U,
  0xbd3625be3bf3c7ddU, 0xbc567950bd9a03fcU, 0xbd4a3139bd1200d6U, 0xbd3b1457bd195078U,
  0xbd83087cbd9e2334U, 0xbc9d6344bcc9ef1eU, 0x3c15e0d8bd9da92aU, 0xbdd0e6b9bbec4452U,
  0xbd0cdaac3b7afe21U, 0xbdbf583ebd325483U, 0xbb1498b33c477b1bU, 0xbd82b750bdac973eU,
  0x3bd38096bd7474b4U, 0xbb0eb086bcbbea9bU, 0xbd22d84dbcd0c475U, 0xbd28ce0bbcdb3c2aU,
  0x3ca25600bb88c04cU, 0xba25ca773c115b75U, 0x3ccb7ef2bc66b292U, 0xbce1c3cc3ccc25b4U,
  0xbd5a0f813c7536ccU, 0xbd0b385fbd0233b9U, 0xbd27ab2f3cdcf5c2U, 0xbd6b9c49bd1b2fe3U,
  0xbd914c02bc468ca3U, 0xbcceec62bd587544U, 0xbc3426363c8ffe20U, 0xbd85dc40bd21f6a6U,
  0xbcddbcf2bb838b67U, 0xbb6399853ad7cbfaU, 0xbcd96c113b5b6351U, 0xbc3e8e88bc54fbe7U,
  0xbd2c486ebbcd99ceU, 0xbd6e0d6bbbd3d683U, 0x3d4abb013c841f17U, 0xbb9d79393d09730aU,
  0x3cee32133b844d20U, 0x3d1c84063bde6c6eU, 0x3bbd56e83d2d7950U, 0x3c495e953c61f911U,
  0xbd6985083cdda225U, 0xbbe4ffaabd56d8e0U, 0xbda7fca43db194ffU, 0xbc2daeb93d06aff4U,
  0xbce0a8883bb5bfd4U, 0x3c02577e3d3d9266U, 0xbbad7eb23ca832deU, 0x3cc5eabb3d04f22cU,
  0x3d1fd7d63d29ca5aU, 0xbd856e7a3d40af2fU, 0x3da5fb8dbcd6b673U, 0xbd1bba6d3d1e5066U,
  0x3d42cc7e3d6d229fU, 0xbc75ce0dbc476db4U, 0xbc3fe91d3d63630aU, 0x3a631a693ce68119U,
  0x3d4d1be93c8d264dU, 0x3c69b9613d23da83U, 0x3b232e873c8c229dU, 0xbc897e4ebc9538b2U,
  0xbc66f8a2bbce1ab7U, 0x3cdc88523c2682f0U, 0x3bad36be3c528bd9U, 0x3d3fe9873db28ff0U,
  0x3b72f24cbd9d2366U, 0xbc916fc13d596fa5U, 0x3d5fd3243d0d49fcU, 0x3d277c4abcee8583U,
  0xbbbf5aa5bc8b200fU, 0xbbed76ff3d70577fU, 0x3cfdb2433b87c968U, 0x3ca079803ce1f039U,
  0x3bbe921d3ce01e89U, 0x3d149d65bbf5182fU, 0xbcbe691b3c4d4a34U, 0x3d945a513cdaafc0U,
  0x3d67085e3ca0b3f0U, 0x3ca93fa33dad1463U, 0xbd00f95cbc8506d6U, 0x3d1ac7363c11f289U,
  0xbc08c0aa3c242959U, 0xbbe33b483d4e7d55U, 0x3bd8ee47bb5f7df9U, 0xbd945634bc127479U,
  0x3ba2f7d13d4c0b40U, 0xbd68c08cbbd51e42U, 0xbc070b2f3d39634bU, 0x3cac55e43d1a5154U,
  0xbc64072d3c85ac38U, 0x3bd0c2efbbcc66d1U, 0x3d38e54e3d3e00b0U, 0xbd01c096ba292355U,
  0x3ccd85b03bdcd1c4U, 0x3da2ee3ebc8089e2U, 0xbc319012bc01d132U, 0x3d6851f03c1cbab8U,
  0xbd49e7dbbd45584dU, 0x3c32a99c3cd2e0beU, 0xbc59f596bb3d4f55U, 0xbd5f8d4ebc4de21fU,
  0x3c220760bcf5b0bdU, 0xbbbe83e5bd9d5f8cU, 0x3cbd2fea3daeaa5bU, 0x3cc34c92bcaac7dfU,
  0x3dc0a7463b6f3108U, 0x3cdfed093d6be707U, 0x3d4865093cea11c2U, 0x3d1aec8ebcb97d70U,
  0x3be12d243db7e196U, 0x3d2aedf7bc4a82ddU, 0x3d52ad743d3293cbU, 0x3d84fc6c3d56a823U,
  0xbce9dd673d15704fU, 0x3d662758bc8bba40U, 0xbcc3b8de3dbd492dU, 0x3dbbb8b63dd1efe9U,
  0x3cb038203cfe99a2U, 0x3ad679b13da30801U, 0x3b95f635bd5c1895U, 0x3c201d3a3d1723efU,
  0x3de75d5fbd44ae0bU, 0xbd61c6b23d464c44U, 0x3cd7d4763cfd6ca9U, 0x3dd789333d656387U,
  0x3d9122fc3ce202bcU, 0x3d8193c53d00bbfeU, 0xbc9283e4bb85de26U, 0x3d419282babd9895U,
  0xbbb08e3f3daeff48U, 0x3c98896c3b093a57U, 0xbbc51ddb3cdf3c89U, 0x3cf6bdf43d5993eaU,
  0x3c3793a83b4fef85U, 0x3d74e95d3d92c900U, 0x3d0884603c89a3a5U, 0x3d3b0a593dca9bd1U,
  0x3d3165293c106031U, 0x3cb76dd13d03db0eU, 0x3ceb26f0bc3162c9U, 0x3ce21f4cbc9c5ce1U,
  0x3d7764123dcaaefaU, 0x3d318ea93c895eedU, 0x3c4bf5883b767a73U, 0x3cb85422bc16b76fU,
  0x3d04ee2d3cbd1ee0U, 0x3c97c0e03d20b1faU, 0x3ca5e19d3d6d7e94U, 0xbc46d5d4bc3e43b8U,
  0x3ca5e60c3cef1fb3U, 0xb9e8b972bd1598a0U, 0x3d8849583c7de907U, 0xbcde7707bcab1feeU,
  0xbd352c27bade8be7U, 0xbcc074503ae9a394U, 0x3c948473bccc13e4U, 0xbcc190103d107853U,
  0x3d0957bb3c352b4aU, 0x3c6f5147bc6b2baeU, 0x3ba16609bd50acd0U, 0x3d1add66ba765520U,
  0xbb4b38273d88932aU, 0x3d7118fb3c3d1e37U, 0x3daff55dbcbfe472U, 0x3d207f923cd89426U,
  0x3d93c02e3cea994aU, 0x3d9da5c33d1c6aceU, 0x3caa6cd23b47ae19U, 0xbbda05c43daa4df7U,
  0x3cfaf19b3d0f64aeU, 0x3d738dd03d45f156U, 0x3d39c52d3b6fd600U, 0x3d556f0abc938cc5U,
  0x3d40454f3d81be69U, 0x3d3e85933d63b5b5U, 0x3ce682433d799c03U, 0x3d6849cc3cba53fcU,
  0x3d4922723cdd3d7aU, 0xbbfacb383d16fc28U, 0xbc9276e23c678976U, 0xbbdcad333d4c9c9aU,
  0x3c9e3aac3d26e266U, 0xbc02449b3d45f478U, 0x3ca9fb83bcc33ce5U, 0x3d3c37a53d0ca17dU,
  0xbc9df8f23d0a3856U, 0x3cac5576bc8440b2U, 0x3d2da31bbc8ed1eeU, 0x3d5ab5773bbf1118U,
  0x3d13655abc9f762dU, 0x3bcbab42bd059c98U, 0xbc22b0b33d0c58d0U, 0xbbfe28ca3c53c806U,
  0x3b3cd4903cff951cU, 0x3cd02b6dbcb3a994U, 0x3c970db73c1501a5U, 0x3d058fe03d138c3bU,
  0xbcfd786bbc88033bU, 0xbd520522bbd221faU, 0x3d003cfb3cce6a18U, 0xbb9091a63d0d7107U,
  0x3cfc830f3cf743b4U, 0x3a30ee25bcef3ebeU, 0x3c163e913d679bf3U, 0xbbb61f903b90d4ceU,
  0x3d13faa43bc2504bU, 0x3d3e49adbd49c287U, 0x3cc5c2573d792f46U, 0x3d2097d9bd28b380U,
  0xbd7c3f823d90f5e8U, 0x3d5ed18dbc8a24e3U, 0x3b1b85063c0be8c3U, 0x3c38ed3a3d8f01e0U,
  0x3d302d143d54ca60U, 0x3ccd721ebad70a60U, 0xbb222cd0bd01ff30U, 0x3d3fb70b3cfa12a5U,
  0x3c2cecf9bca2cde0U, 0xbca64b2d3dc50f05U, 0x3cd87b783d595a6eU, 0xbcd68a063c86fee7U,
  0x3c151b9ebcee7198U, 0x3bbe8bbe3d5483b8U, 0x3d832d04bca12838U, 0xbd2585813cd48b58U,
  0x3d9d5ed93d884ec6U, 0x3d477db9bada93d2U, 0x3cdd96163d402acbU, 0x3cd5a36d3d0de70eU,
  0x3cb13d553d0194c4U, 0x3c05ba05bc88c055U, 0xbd0e98783c06c151U, 0x3d69330a3d6c7a02U,
  0xba9136223d4e3b5aU, 0x3d8c04423da253baU, 0x3c390b81bc3f90d4U, 0x3c5a2d85bae0ff05U,
  0x3c4749003c423d1eU, 0x3d11796dbb3ef586U, 0xb991b8423cf37b0dU, 0x3d0089be3c7012a9U,
  0xbc9615bc3c36f3fbU, 0x3c6affe93b5a6c45U, 0xbc9d6366bcd45fbbU, 0xbc3af93dbc98c1bdU,
  0xbd4d9ea53d1c3158U, 0x3d39c21e39d83273U, 0xbd3a744f3bd7ff0bU, 0x3c869e76bcef507bU,
  0x3c6cd49a3ca851c8U, 0x3ca738943c07f428U, 0xbd5d35113d234581U, 0xbb8a58e43d079066U,
  0x3c378584bc821a09U, 0xbdb8b888bcbc8f8cU, 0x3bc12d3bbcaedc66U, 0xbcd5c773bd00d925U,
  0xbb43f7a9bb951bc2U, 0xbcc7d683bc1a5b38U, 0xbbaf53fdbd82ec94U, 0xbd1b3c34bd71c190U,
  0xbc6091fcb90df819U, 0x3c440bd1bd4a43acU, 0xbdb7af2d3c453dfbU, 0x3c21ac4cbaeb28b4U,
  0xbce0e535bdb04e07U, 0xbd054a1dbbdb89e3U, 0xbd9520f7bd820111U, 0x3c4756ad3c29d29bU,
  0xbc0479efbd617a1eU, 0xbd3221963bf1d43dU, 0xbaa212edbd088928U, 0xbd40192b3c805a9fU,
  0xb97c8ecf3d137989U, 0x3d2236c93b4b054cU, 0x3c34fdae3cf6d6d3U, 0x3d3844283c79a2dcU,
  0x3d3a0c8a3bcbf1bbU, 0x3d4f82593b06c6eaU, 0xbb80c40abb6143d9U, 0x3d4742a43c0fae60U,
  0xbc5a8060bc0e12d5U, 0x3cf58ddd3d5eb9ceU, 0x3a9baf0b3af99680U, 0xbd07e6c3bc917714U,
  0xbcc16e99bac591a0U, 0x3cd7dba6bd2a410bU, 0x3cd206513ce6b677U, 0xbc5c0b81bd855af1U,
  0xbb7fa843bc5bf3e4U, 0xbb584cfd3c492429U, 0xbbb5c47ebb1de201U, 0xbd07aefe3cda5ed5U,
  0x3cedc6c7bb1bb949U, 0xbb50009fbc080723U, 0x3d6becdd3c8e6ec3U, 0x3c0532f63c9a512aU,
  0x3cc3ba393aca40e2U, 0xbcb5153b3c588402U, 0xbc6d49d33bfa41f3U, 0x3c83e244bd1780bdU,
  0xba1f86ec3d648a68U, 0xbc4eead33d10663fU, 0xbd0a806fbb8ff798U, 0x3c1dd08c3c4535c8U,
  0xbbc2766fbc2d5651U, 0x3c524142bc26d955U, 0x38f3a281bd15247bU, 0x3cc92d403bf01251U,
  0x3c8dde15bd175f0eU, 0x3caed10bbaf9bbbaU, 0x3c52ed893cf1baa5U, 0xbc0bc05ebba08d4dU,
  0xbd65167fbd2df307U, 0x3acdaaffbc6340ffU, 0x3cc977ee3a966802U, 0xbcefd6a63cde4e63U,
  0x3d1afc35bb93ba13U, 0x3ce20336bcc814c5U, 0x3d2cb29c3c53098fU, 0x3d1f6019bcbf55cdU,
  0xbbf275e33d4da6c6U, 0x3d671bd83c2737a8U, 0x3d1bd7c73cd16d73U, 0xbcb3241dbd06fedbU,
  0xbcdf6b89bc945635U, 0xbbd528183d29d82dU, 0x39161b73bc9e8fa2U, 0x3ae7b2c93c23fcb1U,
  0x3c3eaa25bcc825c3U, 0xbc8f71533aa48a20U, 0xbccf10c8bd1b50faU, 0xbbc4c8363bb2e17cU,
  0xbcd5b115bd027b48U, 0xbd680be5bcb0e688U, 0xbcf182cdbb0437b2U, 0xbc19ae39ba2b197eU,
  0xbd1700aabce8c24cU, 0xbcd77aa43cee0f7bU, 0xbd34e7c3bd4e1f3dU, 0xb9db4782bcd63b06U,
  0xbda48017bd7d3708U, 0xbd7f49f9bc370577U, 0xbd1f3c14bd087a13U, 0xbd1a109abbadf150U,
  0x3c12f246bc42f409U, 0xbc793fb03b8ddc4dU, 0x3be5e30cbc6307c7U, 0x3cd563bbbb03a760U,
  0xbd01191f3d114beeU, 0xbd2129b83c990dcfU, 0x3cecf1d83cca0715U, 0xbc88aa343c514a3eU,
  0x3d4733f43d3fd138U, 0x3ccbb1783c7c146aU, 0xbc6a2de13b7e808dU, 0x3c672f403c998fb5U,
  0xbc26782dbc4e4900U, 0x3ce443473d76d339U, 0x3d427bfe3cc2f57dU, 0xbc95d63b3c9e4b33U,
  0x3cf7c597bb9489e4U, 0xbbf96a33bc0c79e6U, 0x3c4bf28bbc5cbc24U, 0xbcc19801bd4162bbU,
  0xbdb9c6c3bc924f49U, 0x3d653839bd518876U, 0xbc5cff56bda8d4fdU, 0xbbe84b1abd3755c0U,
  0xbd150b07bd2fb60fU, 0xbd207e4ebd1f87e8U, 0xbc556285bb6b5c70U, 0xbcbee2073b9bb6eaU,
  0x3c33af53bd582a07U, 0xbe077b38bcc1dc8bU, 0x3a2b3970bcc0d328U, 0xbd945f55bd6b07e6U,
  0x3cae1385bca4f261U, 0xbd8c8ad8be041db2U, 0xbd69ce193c8a421bU, 0xbd81069fbd7f1cc9U,
  0xbd7f61f93d482615U, 0xbd0ffcb7bd7edbe7U, 0x3c7279ea3ca7641dU, 0x3d5250f03cdd1fb5U,
  0xbbc7c8eb3c187423U, 0xbc63abe9bcdeedf5U, 0xbc9625983bf61e44U, 0x3cf02875bc91724eU,
  0x3c5e137fbdcf5f1bU, 0x3da94ae7bcf4e44bU, 0x3ca7e8503caf9838U, 0xbaa8d6963ccea024U,
  0xbcfc8638bbf12c6eU, 0x3c27c856bd4fff8cU, 0xbd19b957bcfab635U, 0xbc2e9f7e3c23fa10U,
  0xbd1af6073cc89313U, 0xbd1e85223b980700U, 0x3d2a024cbc87f082U, 0xbd2cc9d4bd00cf0aU,
  0x3cedd0a4bd15cfa1U, 0xbcaf62aebd3b2db0U, 0x3d256397bd3516dbU, 0xbb1efb043c2daf37U,
  0x3c5ca7703c390539U, 0x3d2d27393c075426U, 0xbc59c1b73c470cb7U, 0x3cf3c0953ca7c907U,
  0xbd609b0cbc88b665U, 0x3caa77d53d0ac60fU, 0xbd6315c83b6ee33dU, 0x3d9fe3f63cdb3541U,
  0x3a10c4f1bc1169e4U, 0x3c0738c9baac6d2cU, 0xbd23a4febad64ca8U, 0x3c9de9c43d0c0576U,
  0xbb8d67c73bb7d358U, 0x3d34b9d2bb820d9bU, 0x3d7272363d12ee9dU, 0xb9e83e0b3ca49305U,
  0x3d20774a3d6f71ffU, 0x3cad93c2bda308ffU, 0xbc12051b3d3ca8f5U, 0x3d05c9ae3cb69426U,
  0x3c7e16043c7b90c0U, 0x3c7f9b5a3bab742aU, 0x3d4c7fa83be80c56U, 0x3d5fae013d7aac94U,
  0x3d1ab1153c599a5bU, 0x3ce6403f3d865336U, 0x3d3275c13b6dc6fbU, 0xbd2d9a233d59cb27U,
  0x3cbfbe913c46746dU, 0xbb8e23be3cda424aU, 0x3a460d23bc358ffaU, 0x3c0b8f87bcd49a23U,
  0xbca2c5ca3d3acb60U, 0x3c0fd1083b52a5b4U, 0x3caa6a713cf6961fU, 0x3c85b8343b6f90eeU,
  0x3ce570aabc58c28fU, 0x376cdab9bb28a119U, 0x3c3ba366bc591d8cU, 0x3ba1f1153d460515U,
  0xbafc3292bd0a1437U, 0x3bf89b8a3cd1d4e9U, 0xbc1b9a2fbc1d6da5U, 0x3caacc203c7fce34U,
  0xbc241eaa3c33d233U, 0x3c15b292bcfb65dcU, 0xbd483ca33c79f1b6U, 0xbd40f7833d152a50U,
  0xbc97ee56bd457826U, 0xbc62d38e3c90bcbbU, 0x3d3d7d75bc75a474U, 0xbd8d036f3ce78d32U,
  0xbae94e033c6fa9c3U, 0xbb14cd963bb6f844U, 0xbd1a3b593cee0210U, 0xbb31c4523d6c3db6U,
  0xbc0d64063c3a30f4U, 0xbc2b3f523b99ee4cU, 0x3bb83a54bd93958cU, 0x3d7b203f3ceb3ff8U,
  0xba1ce2e8bbc88c32U, 0x3c2999c8bcd75839U, 0xbcb43348bcd345a2U, 0x3c3a56f33c98fc59U,
  0xbd52d6b43ba0ed67U, 0x3ca3e76bbcb407a4U, 0xbd4aaea23cb26485U, 0xbcb7077fbccd9544U,
  0xbc2c12443d03bd7eU, 0xbaa64394bd3ace91U, 0x3cc79fe53d003c64U, 0x3d40e851bce4e8d3U,
  0x3d0a96593d22fc25U, 0x3d971dab3d323658U, 0x3c992f3c3d39f4c3U, 0x3d0c10023d82c725U,
  0x3c9f04103daaf94fU, 0x3d89870a3c8ab8daU, 0xbbcc90363c8b42d5U, 0x3d60bf7e3d55437cU,
  0x3b4b79d13ced0a65U, 0x3cacf4953c9a62c1U, 0x3d6d37a23d0eb2bfU, 0x3d1c888d3c9c8821U,
  0x3d2e36743ca488afU, 0x3d52f386bbdb095aU, 0x3da28e113dbc91ccU, 0x3b9832c6bcc77e04U,
  0x3ce7545f3d8cc8c4U, 0x3cf896c23c745babU, 0x3d294f733cf0dee6U, 0x3c89f9ad3d3cd8e4U,
  0xbd1221c03b87b51eU, 0x3d3807dc3d4fee32U, 0x3d15bba33cabf495U, 0x3ce83e293d689471U,
  0x3cc85f973cde6dacU, 0x3c237f173dab434cU, 0x3d02327d3b83cd2dU, 0x3cd755993d308045U,
  0x3ce67ead3c836991U, 0x3d322b253d0297c1U, 0x3d00095b3d1d8396U, 0x3c0d1e1d3d64b297U,
  0xbc4699943d8d1898U, 0xbba481c6bb795dfcU, 0x3c060778bb395ef4U, 0xbad41d773cc16703U,
  0x3b9da3cd3c8d6bb6U, 0x3d0f46d53c30f117U, 0xbd0d9160ba2a1a7cU, 0x3d10d4b4bc11247eU,
  0x3b9307d33c5fbde1U, 0x3b47ae71bb62dfd6U, 0x3ce203eb3c67de5aU, 0xbd05f0703c634cb6U,
  0x3be28156bce7f44aU, 0xbb8a9a953bcdec3eU, 0x3c11ad15bbca104bU, 0xbc8bd53d3a95bb26U,
  0xbd3e619dbca42d0cU, 0x3cd2bfb6bccbecd1U, 0xbcaf8e853d4393fbU, 0xbc2864aebc873149U,
  0xbd41f710bd87da60U, 0x3d3b8060b99973c2U, 0xbcc8bacdbc5aa795U, 0xbc78c244bd32beddU,
  0xbd10e7703c9c438eU, 0x3c05087cbc7e3ba2U, 0x3c463d98bd4420a3U, 0xbd16babfbcd2748aU,
  0xbc4449d6bd75f256U, 0xbd28ba31bd480bf6U, 0x3c3a0d4c3c6caddfU, 0xbbdb4cb53c77f259U,
  0xbce2f3083c96079cU, 0xbd382857bd197e52U, 0xbd8aa693bcc5fb7fU, 0x3ca720babd0cb4faU,
  0xbccbd744ba2b5fffU, 0x3cfc0f6abd3d3483U, 0xbc793464bc82bbe0U, 0xbd71fc973af9ac35U,
  0xbd28089ebc895182U, 0xbce53540bd78aadaU, 0x3caa17a6bd397d35U, 0xbd17b4533aad6a48U,
  0x3c0eb48c3c5b9de0U, 0xbd57f37cbd30145fU, 0x3ce427e4bd044650U, 0xba6f7cfa3c90679cU,
  0xbd96033ebd113b47U, 0xbd570243bca73b15U, 0xbcb75862bc9a46d3U, 0xbbc9736b3d736a4aU,
  0xbd9ad21dbd2b4fe6U, 0x3becb1a93c43e10bU, 0xbd4848d5bd09f6dbU, 0x3c85dd65bd41b125U,
  0xbbd84db9bcd51de2U, 0xbd9dc40ebd264377U, 0x3c227e1b3d1204a6U, 0xbc8f6da43c2c7402U,
  0xbd413d22bb8ed31fU, 0x3c11a32cbce034a1U, 0xbc8bfe1bbd2a1462U, 0xbc88286ebd4b2410U,
  0xbd0aed9abd095e7fU, 0x3a71846bbd605d66U, 0x39a383a43ce3396aU, 0xbd1cbecc3d030a55U,
  0x3cd85453bc6b5aebU, 0xbd7c87debcb15975U, 0x3a230a81bc9bca8fU, 0xbbf1441abd3424ceU,
  0xbbad05babd9472e8U, 0xbcde7281bd28b8d0U, 0x3bd49614bcfc7f1eU, 0xb7ac5103b9911867U,
  0xbd40e1353cc789eaU, 0xbc1df31c3c021fb5U, 0x3d1e2782bc6fad87U, 0x3db7db0ebd04d191U,
  0xbc06e4e7bc0b2279U, 0xbcbf4de3bb88aba4U, 0x3cf599c5bd1d98c1U, 0xbca249d9bccdb073U,
  0xb9aeeefe3b3b71dfU, 0x3cf419223b26d3a4U, 0x3a1f8c2cbce98a17U, 0xbcc784f1bd26fed7U,
  0xbd0bb6c53cfc5802U, 0xbce088d5bceb856cU, 0x3c1ba3abbccd367bU, 0x3d0a5fec3d8c5c06U,
  0xbd6330b3ba1b67f7U, 0x3b1a0bdf3ba1f90cU, 0xbbefc9463d085a1bU, 0x3bb5a166bc92110eU,
  0xbba94b2a3d241b99U, 0x3c8f00f83c846c35U, 0x3c7db23b3c2c50e9U, 0xbb6324d6bd22d22cU,
  0x3ce467063c5f09c9U, 0xbca477bc3d111b27U, 0x3c7c594a3d1cdba2U, 0x3c753c8c3d4ed449U,
  0x3cfd99ef3b7cd2c9U, 0xbb2747753baf14e6U, 0x3d67ed4dbccc7f78U, 0x3d00bbb63a2633d3U,
  0xbd37a2be3bf391b0U, 0xbaafbe403c772dfeU, 0xbb73cdc43d734dc2U, 0x3c9a153bbba78eeeU,
  0x3cfb7e733c681420U, 0x3c77568c3c996db2U, 0x3d2231a1bc456c05U, 0x3c9ffe183c88b8bdU,
  0xbcb1e82d3d031711U, 0x3d3c919c3ba8973dU, 0x3ce654003ca45193U, 0x3c93979f3ccfcd65U,
  0x3cff04023cfebf57U, 0x3d30168ebbcc2990U, 0x3d542ebd3d7ff921U, 0xbcbced8d3c89c1e3U,
  0x3c3f10053d31e634U, 0x3ce734edbcacbfb3U, 0x3dd6dc76bc802c20U, 0x3c94329d3db1dd36U,
  0x3c9f8f233bd92fb1U, 0x3c4a741d3c4d88d7U, 0x3d10807a3d38de84U, 0x3d5a2d223dbd6d49U,
  0x3c167a1d3db82f9bU, 0xbd3f2e54bd4d93d1U, 0xbcd6c5cb3c8aef50U, 0xbcbb3508bcffd7f8U,
  0xbd9247c1bbe5c7feU, 0xbc289c82bceb1724U, 0xbcbdf2b2bcf81184U, 0xbc3eeb6bbccb7212U,
  0xbd44629dbd1deddeU, 0x3bce295bbcf3cc1aU, 0xbc60ddffbcf2da1bU, 0xbcdc70a1bcbeb7ecU,
  0x3c22ccc4bb896e6bU, 0xbd9a23e53b8ca90bU, 0xbd10e898bcfc0103U, 0x3c3ce50b3c5642feU,
  0xbc8319223c159d21U, 0xbd04668bbdb94924U, 0x3cab8416bd3116cfU, 0x3d093e833c743430U,
  0x3c4a990abd5b7e4cU, 0x3cf34db0bcbe4aa2U, 0x3c81902c3c54b5c5U, 0x3c6adb00bc2b9e10U,
  0xbcdadf753cce7f6eU, 0x3922c4aabd81558cU, 0x3c8daff9bc0dd717U, 0x3cdc45543cf2619aU,
  0x3bcc17dfbd1cdfceU, 0xbd28bda2bce537c9U, 0x3c324ba2bca6b344U, 0x39035d803d190fb0U,
  0xbd72b1e0bd39ce58U, 0xbcf9bff4bcdb0455U, 0xbd4be98b3d2c173eU, 0xbcd3a6d6bd80e056U,
  0xbc9722f5bd931709U, 0x3cbef87bbd3dac01U, 0xbd9798bb3d77e4c7U, 0xbcf57b6fbc83985dU,
  0xbab850cd3c30d0e2U, 0xbc3c00f5bcf97ba1U, 0xba95e6b3bb8fabd4U, 0xbc0ac321bd461646U,
  0x3c157d41bd94fb35U, 0xbd09e5b73c1cefc5U, 0xba3f4e7fbc7ceb97U, 0xbc595addbd069d71U,
  0xbbedf135bd0f0183U, 0x3d34dc20bc555480U, 0xbd11833dbd90c53bU, 0xbd68840bbd96596aU,
  0xbd7b2dd4bd30526aU, 0x3d5ef217bd3d5223U, 0xbcf7ba15bc906cecU, 0xbce08483bd0146e5U,
  0x3d51c1ae3bc0e034U, 0x3dbaa6343c6d39ebU, 0xbcc705963ca9d102U, 0x3d4556633d0416efU,
  0x3c6262333d2522d7U, 0x3d06664b3c8525edU, 0x3ca1827b3d88f738U, 0xbba11c723c80b6a0U,
  0x3d419da53d2c2b11U, 0x3d6504933ca501c9U, 0x3cef0d733d624ac4U, 0x3d0925f83d81fb50U,
  0x3a2d21733c8bd06bU, 0x3d0cf3993cda4e1bU, 0x3d8da2c63cceb794U, 0x3d9612093d83b8e9U,
  0x3c12a5ac3d18c93cU, 0x3d8dd0903d99e0eeU, 0x3c9e03b23c0938a0U, 0xbd10ce703ce985b6U,
  0xbc72dec3bcbd5a8eU, 0xbc685403bd232485U, 0xbd266b87bd17e7a5U, 0xba904c44bbe2245fU,
  0xbac536e6ba9f690cU, 0x3d1498aabd55a61eU, 0xbc049e773b832c35U, 0x3d1f7cc3bcd182fcU,
  0x3d1297813bf2911bU, 0x3cc54b4cbd5be8d7U, 0x3d006d3d3c8a465dU, 0xbd2754c63c7f59cfU,
  0xbcad305abb8c9d43U, 0xbd09f9f13c5ffbd4U, 0xbd4ac047bd6f2c9eU, 0x3c4d8a2cbc6012faU,
  0xbcb8c5e3bcc36ef6U, 0xbd2834d7bd4f5fb7U, 0x3da86a1a3cc38ea4U, 0x394a89eb3cffd75fU,
  0x3d4556b43d4d90c7U, 0x3d0b47363d89e553U, 0x3c21e2e13bd7c67eU, 0x3c7ce87f3d402e3fU,
  0x3d2f5e49bb9e92ddU, 0x3cfa6ade3d6965c9U, 0x3bcc223b3c1c4de6U, 0x3d6cb2163c8af953U,
  0x3d5eb1c6bc532cbbU, 0x3d63106e3d2d1ca0U, 0x3d80ac9a3d814195U, 0x3d49caa83c474096U,
  0x3d3109563d8af739U, 0x3c8801bc3cc48337U, 0x3d6e26ae3d29cda9U, 0x3b5d15cf3d22142cU,
  0x3d32fecabd1c5eb1U, 0xbd0156f5bd750aafU, 0x3d2064a33ca592f7U, 0xbb9144e13c8f2900U,
  0xbb47b4d33c397370U, 0x3cce0b9d3badd102U, 0x3bd0486f3cfaff62U, 0x3d08a610bc3dd235U,
  0x3d167f203bfe1e11U, 0xbcd461a23b81af77U, 0x3d3120c837f705c4U, 0x3d046b963c0afb65U,
  0xbdada507bd3546ceU, 0xbbb6f4793d1c8d7eU, 0x3c21db673ca515baU, 0xbc696152bac8a840U,
  0xbd4aa265bd719dc3U, 0xbdb2aa893ca49fc7U, 0xbcd4abc6bc58107fU, 0x3ccfe54e3bb75f6aU,
  0xbc11295fbd6a20deU, 0xbd005342bcc41465U, 0xbd2d1816bd10f47bU, 0xbcf8892a3bbe3366U,
  0xbc24f0d8bd34f4a0U, 0xbb1f9182bd40d6c9U, 0xbd3e9ab5bda780cfU, 0xbd39d8b1bdbf9935U,
  0x3c1c811dbd84d831U, 0x3c77d327bceb45e5U, 0xbdada859bd3f96f1U, 0xbd489c7b3cb2ce18U,
  0xbd8a6fb2bc3943b8U, 0xbbf7eab1bc99c72dU, 0xbc81ae16bd6e593bU, 0xbd1bd8e9bd693652U,
  0xbd5683a5bde09275U, 0xbd8e15033cb88520U, 0xbd840edd3ab51943U, 0x3c4c64cf3c6379c9U,
  0xbd9d0f69bcfbd43eU, 0xbb12deafbd7ab1f4U, 0x3ca09fb6bc571475U, 0x3c961d9abd999d99U,
  0x3b455917bd2ebec8U, 0xbcc9bc4d3c7eb7baU, 0xbcb65601bbbda29dU, 0xbc4dc4a8bd5152f8U,
  0x3be1dde9bc52a134U, 0x3cd93efcbd23be23U, 0x3cfc704fb975a18cU, 0xbcae97123d386f39U,
  0xba956e5ebd5d3a8aU, 0xbd2f0241bab809f8U, 0x3c838ff8bd824460U, 0x3ce44abdbce34134U,
  0xbbe825c5bba807e0U, 0x3d978ea43d2d1fd2U, 0x3caa260f3cffd838U, 0xbb9867a43c50c21bU,
  0x3d17b0c33ae5b3baU, 0x3b54fdb13d82797eU, 0x38d70aa63af6b972U, 0x3d1423363c7a5594U,
  0x3d6fd2803bdce620U, 0xbd2608493cf32977U, 0xbca645373ccc7df8U, 0xbc1265923d6de002U,
  0xbb9f3ecbbce6eaffU, 0x3cf635ec3c9cf14cU, 0x3ccad57cbc9a0acbU, 0x3c1aa7fabd070d8fU,
  0x3cca882c3cc453dfU, 0x3d95a9ddbc922162U, 0xbd9d940d3be6b60eU, 0xbd918d483b774c82U,
  0x3c3c55bdbd02e467U, 0xbd5d84973c975e6cU, 0xb9a70a263c5a1bbaU, 0x3caa6c2c3cc8134eU,
  0x3c7f1404bcab0367U, 0xbbc49d48bd195555U, 0x3d222b80bc9bf276U, 0x3cd1a51f3d0bf736U,
  0xbd018f19bb4c8090U, 0x3bf1dda5bc145fbcU, 0x3d12bdf8bd8fcab6U, 0x3d4373a9bd15067cU,
  0x3c3bb8093c11b528U, 0xbd92cbacbb68cae7U, 0xbd096de03d626fc0U, 0x3bb85898bd8e26d6U,
  0xbcba1b89bc8d4f25U, 0xbd8599e3bd347525U, 0xbd91e70fbd808a8cU, 0xbd184163bcda3d0cU,
  0xbd1c26dabdb30f43U, 0x3d45741f3cbd0731U, 0xbd89144ebd4c0a6bU, 0xbcb33baabd559166U,
  0xbc6b822cbca2f424U, 0x3c2e899dbdd16df8U, 0xbd6abd84bd1b1751U, 0xbcb79323bd78cd74U,
  0xbcb7fd453b60494fU, 0xbdc3137abd5fa5ffU, 0xbcf078653ab85cdbU, 0xbd5b0d963d000e7aU,
  0x3b1f7cd4bce44acaU, 0x3c06bbb2bd8f1b6eU, 0xbd587799bca4363fU, 0xbcc668003c5b758bU,
  0x3ca0bcddbcdb71f8U, 0x3c5db2aebd46ac31U, 0xbd35197ebd185ddbU, 0xbc99026abcfd7dfcU,
  0xbcd561aabcd70517U, 0xbca7d6323d586acaU, 0xbd073677bc431a02U, 0xbcc3d78a3bf10779U,
  0xbd7b0d31bb55db5aU, 0x3cc6607abd1c7500U, 0xbd865041bd5fa318U, 0xbd0989713d2d1b07U,
  0x3c5d056d3c886902U, 0xbd89b791bcf6afaeU, 0xbd24a915bd3fb768U, 0x3cb3641cbd7a6dc5U,
  0xbc68e193baac424eU, 0x3d21169bbcc66ffaU, 0xbce6e625bd006d42U, 0x3cd836dd3d197c76U,
  0x3cbd9451bbbba2b9U, 0x3c318f3b3cc37aa9U, 0x3b87a6823c43c166U, 0x3c153e61bc212ea4U,
  0xbc9f57fa3d85d65fU, 0x3c0094883cfc5f5cU, 0xbcc2b016bd0e3f77U, 0x3c859cc53c1f022bU,
  0x3ccb83703c9a3c61U, 0xbc3801a33c655df7U, 0x3ce772bdbc8d099fU, 0x3caab55abd1fc364U,
  0xbd0c4efe3d3c0c75U, 0x3c649b9b3c2bb6afU, 0xbd6358eb3c71f515U, 0x3c92f06fbc6be313U,
  0x3d28c6613d337344U, 0xbc4e3e453d220bacU, 0x3dbbbc583d630764U, 0x3ca21785bcaa3d52U,
  0x3c832c3f3d496003U, 0x3d0239313ca05ed2U, 0xbbda19093cbfc99aU, 0x3c9497823d9e36fbU,
  0x3d5bf11f3ca9d8e5U, 0x3da1109abcbf7697U, 0x3c0144803ccc3b8dU, 0x3cfceca5bd9473e4U,
  0xbc8160023d416d72U, 0x3da38de73da7b6f8U, 0x3dc144f1bb67db2aU, 0x3d0d87753d84a204U,
  0x3d0c0a943d8ee030U, 0x3d744e82bcbceae9U, 0x3d2328843d8e5b61U, 0xbd7fcea03cb4e2edU,
  0x3d08a8793d3dc0a1U, 0x3b3f0827bd52de7fU, 0x3d0e4aa4b98b195aU, 0x3d0d5d1ebd22652fU,
  0x3b83cab3bba343d0U, 0xbacc7216bc3c703cU, 0x3d1b0e08bc2ea712U, 0xbc558fe83c50ace9U,
  0x3d646c143d8c8d8eU, 0x3b465671bd43143fU, 0x3d4888c2b9ee9b01U, 0x3c3702673c97da8fU,
  0x3cbbe97a3d722fabU, 0x3caab7ec3db2441fU, 0x3c5f48cabd107652U, 0xba9aba7c3d508ae2U,
  0xbcd77695bc52efd4U, 0xbc21a623bcdf0be7U, 0xbd7ad3b93d9c436dU, 0x3d17d1153cc635e0U,
  0xbc9d8f3a3ca07ecaU, 0x3d1530903ce1eb75U, 0x3d5d96573d45a6bdU, 0xbbcf80413d0a64edU,
  0xbbed3f043d0151bbU, 0x3cfc4fb5bd5925e4U, 0x3d2e7f423c3642f3U, 0x3cd3b5b33d318a3eU,
  0x3d35b0ae3b92ebf3U, 0xbd44ea0e3da60723U, 0x3d12fda63d33423fU, 0x3c7a08f9bd0b7373U,
  0x3da1e9f53de2a2d1U, 0x3d3b0eadbb98ff60U, 0x3cb6d4fa3c13b05eU, 0xbd24c2b83cd46416U,
  0x3c8273d23d9d6d2cU, 0xbcde49d83bb77bbcU, 0x3abbc3c63da5444fU, 0x3d413e933d017760U,
  0xbc86713f3b5b380eU, 0xbb22b9133dbd393dU, 0x3c9cce3c3c3e8a14U, 0x3d43c8a83dbaaef5U,
  0x3c62d5533d2129b1U, 0x3d0c5ae8bb4538a0U, 0x3d0046b73d1c2091U, 0x3c460fb23d94cae3U,
  0x3d8dbdc23c9f86e4U, 0xbd151f393d68127bU, 0x3d2de16e3d38c641U, 0x3cbce5a83d8a27aeU,
  0x3d8ff3013d851b8fU, 0x3d1f05dc3d159677U, 0xbcdc1c78bc79bae1U, 0x3c864ca3bd6fe7c9U,
  0xbd12c1693a4db398U, 0xbd21e7babcb65fa3U, 0xbce27ef7bce38c6aU, 0x3b28df9c3bd4c4e1U,
  0x3c90ec86bcfb654fU, 0xbd9571e53c266a29U, 0x3d2acf7cbc988548U, 0xbdb0f5e4bd001388U,
  0xbd32fb653bead936U, 0x3cec545ebcd52292U, 0xbd6227673bf8cefdU, 0xbb2eca3fbcf4cf12U,
  0x3cd863ce3d0c419cU, 0xbcadcf793cd6b421U, 0x3cbc0e003a566619U, 0xbc02c9653c9abba8U,
  0xbd8a8398bab599afU, 0xbb20bc6cbcdc94f6U, 0xbd92518dbdaef278U, 0x3beb8bae3d0deef9U,
  0x3c914d4bbe09042aU, 0xbb4ac1c2bc59c1baU, 0x3c8ce4f2bbcefbccU, 0x3d20981fbd6aa903U,
  0xbdbb52acbd4d69d6U, 0xbc8e76a3bd06ec7bU, 0xbdc6962cbd5685f6U, 0xbc9ac4b83caee99aU,
  0x3bfe3254bc28ae09U, 0xbd58d9b1bd71766fU, 0xbd8e4ec73c0365aaU, 0xbc8f2cc8bd878d20U,
  0xbe029d9cbd0215f5U, 0xbc0253dabd3cae1dU, 0xbe009b33bcb553c4U, 0x3d0f2b813c146377U,
  0x3d0a45f53c1979f6U, 0xbc8b65c73c63c1cdU, 0x3cbc0dcc3c2c6376U, 0x3d46d07abcde284aU,
  0x3d1024d23c723bb3U, 0x3c8deead3ccb0894U, 0xbcbdd9ec3d344a1eU, 0xbc226390bcc8cd1eU,
  0xbc7f13fc3cd45518U, 0xbc04bea43d1c67b6U, 0xbcb64f703d6a13f3U, 0x3d2f4deb3c909136U,
  0xbc3c5e773d2a914bU, 0x3ca960db3bd33939U, 0x3d568fcb3c9dfb8fU, 0xbcfa46523d5e2ba1U,
  0x3cf1537f3d1fa048U, 0x3cdb0c98bc3faba2U, 0xbc06d8c53d5e60d0U, 0xbc4209aebd044ea9U,
  0xbd3e65e83c03605eU, 0x3d5cfb5d3c5e7c8cU, 0xbc2bc7f1bd262b92U, 0x3cd5d5b73c961143U,
  0x3c1b45943cef18a9U, 0x3b11a9e6bcd1c6ddU, 0xbbc27c073d2daf78U, 0x3d3ce78b3d29e03dU,
  0xbd4c80d4bcc7a062U, 0x3c45d3ec3d4c36caU, 0x3dc241973c1e82f7U, 0xbe00a33ebb133b83U,
  0x3d53b39f3d0e4cb9U, 0x3c881af4bc04ceceU, 0xbd6295953d6923cdU, 0x3a500a673bed62a6U,
  0x3d213ad33d59d757U, 0x3d173569bd3ba9c3U, 0x3ae16ac23d9b918dU, 0x3c776912bb2684f6U,
  0x3cb47e2d3cc3a936U, 0xbb9a7f47babdc28eU, 0xbc54e9273cb21ce5U, 0xbd15c1923d1f98cfU,
  0x3cb5c416bd18deb3U, 0x3b6fd2dd3bed94e5U, 0x3bb3e303bc1f4f80U, 0x3d7bd8353c7f8337U,
  0xbc00adf33ba3930bU, 0xbd79abe9bba5d36fU, 0x3da0ea63bbf9cc96U, 0xbd6e744dbca09487U,
  0x3c8ab5ad3bb7653cU, 0x3c1bbe3dbd25e367U, 0xbd27a1903daa97aaU, 0x3cf51d543cd71824U,
  0xbd89adfcbdb32a56U, 0xbd9d7b9e3c33943eU, 0x3b4dc1eabd9d2832U, 0xbdc195f7bd023d33U,
  0xbc1d84c8bc4d9492U, 0xbcac2a36bd52477bU, 0xbbb46163bb25860aU, 0xbd3ae9253c9a6c48U,
  0x3c39f776bd3356baU, 0x3b95147f3cb789d2U, 0x3ca382673c88f8faU, 0xbd54a93c3ab7d0ccU,
  0xbd24fde33d7c4e84U, 0x3d6121f4bdca0f40U, 0xbd6440f4bcd45d3aU, 0x3bcf68c1bca2076cU,
  0x3b65cc44bc37f0a8U, 0x3d2ccffb3cc7978dU, 0xbc1685cbbb1f845aU, 0xbd7279243d262de5U,
  0x3c28946b3a5739c3U, 0xbcb5b8593d952f99U, 0x3d063640bcfc3097U, 0xbc172fb8bcfabd01U,
  0x3b19a4ac3da50a95U, 0x3d2cfed53cc23762U, 0x3c433e593d800e3aU, 0x3d0f922e3d87ca95U,
  0x3a46e173baf7b86cU, 0x3c80d68a3d4c48e4U, 0xba5287df3d5abe64U, 0x3cc93e383c592deeU,
  0xbc31d6983b215402U, 0x3d81bddb3cddf3c1U, 0xbd1f47eb3ce736b9U, 0xbd380430bc685cd7U,
  0xbd6bfbc5bde05cffU, 0xbdd9b9593c82a8d5U, 0x3d70072abc2f9905U, 0xbd2ac4d6bdee42fcU,
  0xbd8758ff3d3706abU, 0x3d4ee2eabdd69485U, 0xbcb49145bcd78656U, 0xbbc742173c715f53U,
  0x3ccab00cbd44aa63U, 0xbde87a55bae6daa8U, 0xbd21dbfa3cd6695cU, 0xbc064027bd92fcd4U,
  0xbd88b7f1bc37a9cbU, 0x3c862fce3cbab41aU, 0xbd8d3935bdcf9737U, 0xbd4879dc3c4471baU,
  0x3d15c894bdefef91U, 0xbdcb5d67bd290f08U, 0xbc6f0c1fbc55358aU, 0x3b8e68a73c48ed99U,
  0xbcf2fb33bc856c4dU, 0xbd8f9f79bd41fdcfU, 0xbd511447bd173377U, 0x3c61f54a3cab1b39U,
  0x3aac2ad23c64c8a5U, 0xbc39de583b5a76e8U, 0x3cd9bff13d96861cU, 0xbd85be85bcd3cf99U,
  0xbb81db0cbb1df10bU, 0xbd0afc973c2acb68U, 0x3d32ad223bf671eeU, 0xbc946adcbd1f4caaU,
  0xbc16fcc13c9fd41cU, 0xbc56023bbcee5c7bU, 0x3c37bf7c3d4c73e9U, 0xbcb006823bf48bfdU,
  0xbcc132f63cbb7357U, 0x3d08c40cbd180409U, 0xba9c6c623bbdf925U, 0xbc8d318f3d806bb5U,
  0xbb9c78803c9185b8U, 0x3c25ed90bcd0d831U, 0x3cb7cd5d3ca5cf56U, 0x3b75bde4bd6f8c23U,
  0xbc9becc7bc7b9351U, 0x3ceb08d23bafe428U, 0xbca829783d7ec67bU, 0x3da6fa4ebc170850U,
  0x3d7a4c813d7bd1fbU, 0x3ce31fb33c6c84e4U, 0xbcc112e13c7f53faU, 0xbbdf7c09bcac06d7U,
  0xbd401f523cf83facU, 0x3d81bff53d03aae4U, 0x3c8193313d7b1123U, 0x3d8d47a13d0d45ddU,
  0x3d5344ae37e85ae7U, 0xbd211b90bc7779d5U, 0x3d8c102b3c2aa494U, 0xbd00793d3d308b6cU,
  0x3daf624b3cbfa1b0U, 0x3ca7b6c93cc2ca07U, 0x3cdb1c063d7461e4U, 0x3d604fd13d3265e9U,
  0xbc8930ce3ca2efa4U, 0xbd0eeae43c95172aU, 0x3d11610abbba8aedU, 0xbcb19bdf3c6dd715U,
  0x3c4b20e53d892319U, 0x3b37c7f3bcdc2a5cU, 0xbc2a5f92bc128a05U, 0x3d1465353c695b36U,
  0x3d2013753b6cb542U, 0xbd2a5525bc60aed5U, 0x3d34de863ce6aaa6U, 0x3cbe257fbc94c077U,
  0x3d3f1c5f3d05ab30U, 0x3bf590f73c391b87U, 0xbd20d673bcda0833U, 0x3daaf5c9bd04a8a3U,
  0xbd3201f9bc925f5dU, 0x3d8d009c3bc2670bU, 0xbbe7f910bcfdd0deU, 0x3d97492e3cb2836eU,
  0xbd8adc15bc0ef8a2U, 0x3d087f583d00f34bU, 0x3beb0b5d3c9b8ad6U, 0xbc43479d3ca2c5c0U,
  0x3c878ab4bcc2b140U, 0xbce9de4abb911dc1U, 0x3c6b10e33c03bae8U, 0x3d9477bb3d2364afU,
  0xbc9084b83a881d35U, 0x3ba7c112bb9efa7cU, 0xbd05bb0e3cdf0982U, 0xbd1c8eb7bcfe430dU,
  0xbd1520073d266360U, 0xbc9e0390bd1a9272U, 0x3b585ed33cf9cef3U, 0x3ca6c578bca8b8acU,
  0x3c74becb3cd47297U, 0xbd42fe49bd5390bfU, 0xbc8a4cb63d898edaU, 0x3da46c07bc90a2baU,
  0xbd208d603d3f3280U, 0x3b3af5b5bd5d7c45U, 0xb81d67b3bcd0eee8U, 0x3ce48b89bc4e79a7U,
  0x3d41263f3d8167f8U, 0x3b88ddcabcb3e51fU, 0x3d9ab4efbd245f4bU, 0x3d91f7f73d8f4f66U,
  0x3ba24d073a8a64dfU, 0x3b8bd7333cbe688dU, 0x3d9c56c33cd1f480U, 0xbd17393e3b2190e5U,
  0x3bcddcce3d010888U, 0x3d1e8a91bc2a9d6cU, 0xbc2d2f593d9c66efU, 0x3d45bf9f3d2290b5U,
  0x3d0416af3d31a093U, 0x3a9b3806bc11c7f0U, 0x3c56f3a63d8bd8cfU, 0x3d8c7993bd021176U,
  0x37fc6975bbfcc0afU, 0x3db797a33db44061U, 0x3d88361fbc8223d5U, 0x3d05efb73d3bae4cU,
  0x3d12e2a73ce8635eU, 0x3d6daa2c3a3dd324U, 0x3da098133bd9b3b3U, 0x3c137b873ba285bbU,
  0x3ce6397f3d80c792U, 0x3d0844153ad6bddeU, 0x3cfb6e9a3cda55f7U, 0x3d25fa973cb7ce5dU,
  0xbd17d43c3c468547U, 0x3cd8e60a3cfaa1afU, 0x3c65c2163b854e34U, 0x3c4862833d300a00U,
  0xbc68b9743d155509U, 0x3d49aa983c1727fcU, 0x3d195dff3c0aa5b3U, 0x3cc487443d53b866U,
  0x3d76fa5ebc9a5f3dU, 0xb995a3d83c89df56U, 0xbc21a3143c05bfbcU, 0x3ca1c2283cdf0bd2U,
  0x3d1e8fc83d1b5490U, 0x3c25e6f6bced01d7U, 0x3a7e7ca1bcad64e1U, 0x3d13a3c03c01d950U,
  0xbc5bb3113b83a171U, 0x3d5b3b1c3d5c23e3U, 0x3a5eafadbd8b451bU, 0x3d79f21f3daae538U,
  0xbd217e153c86909bU, 0xbc41b177bc1b04a7U, 0x3ca499ae3d0d0c29U, 0x3c7c245ebd033b64U,
  0x3cf174a53d0c3e8aU, 0x3d11367b3c2b6f2fU, 0xbd3482f6bc416b13U, 0xbc818f27bd1cd477U,
  0x3c9a1d00bccd1d34U, 0x3c30578bbd2e8147U, 0xbd22bc10bdc324c9U, 0xbc8881a63d874d21U,
  0xbd86d0e73af4fb87U, 0x3d0781c1bca7b57eU, 0xbc43eb043d811b62U, 0x3d5c0137bb012dacU,
  0x3cefc5f23d2f00b3U, 0x3d324815bd49d6cdU, 0xbd033323bc14fd89U, 0xbc68c62a3c064340U,
  0x3d754e993d8b0693U, 0xbcff7605bcf583e7U, 0xbd74053fbc218a50U, 0xbd1acc22bd5722c2U,
  0x3be77235bc245dacU, 0xbd40f57fbd47e092U, 0xbcac360f3c926c33U, 0xbd1ef8ea3d34ac84U,
  0x3c04e47abd05f615U, 0xbcece2abbb98f4f3U, 0xbd30cddebd2e8107U, 0xbce1a45abd5250d5U,
  0xbd550c7cbcc38f2aU, 0xbd1de1b2bd9aa50bU, 0xbca07163bcebba4bU, 0xbd30bfd4bc2dc224U,
  0xbd6f3a543c97751dU, 0xbd1da997bd18b386U, 0xbdaf0257bb08782bU, 0x3ca4f4f13c087f79U,
  0xbd3082f3bbb21906U, 0xbca370a4bd2df121U, 0xbab3b8b7bbdfb401U, 0xbd65a829bc9d756cU,
  0x3c58163fbd4e4241U, 0xbc85bed3bcf41ac5U, 0xbd80bab2bd9a96a4U, 0xbd871a2bbd10ec63U,
  0xbcf4303a3c3aa64aU, 0xbd6055d8bd916b38U, 0x3c8453b8bcef3a46U, 0x3cd671ee3bdba86fU,
  0xbc993faebc91ed9fU, 0xbd981de0bd4b3ec2U, 0xbd46a2aabd3692f1U, 0x3d075cae3cc610cdU,
  0xbbca9e91bcfa1db4U, 0xbd1da9203d10a1e8U, 0x3c0f4cb23c3bc2daU, 0xbcf45c96bc7b5654U,
  0x3b55b7a7bd1d162fU, 0xbb18185f3d0ada85U, 0xbbe292a4bc3bba91U, 0x3c93e4f4bd9abae1U,
  0x3d7a3d19bc4f42a2U, 0x3ca8d685bc50f1d9U, 0x3b776876bd3f011cU, 0x3cdbcbea3b3689a5U,
  0xbd613370bd8ed824U, 0x3ca929e9bc443284U, 0xbcddbdc7bcb4fca5U, 0xbbdfa98abd2404f7U,
  0xbd1ad8503bc07d09U, 0xbc73dbbd3c82d4eaU, 0x3d1d777dbd416f25U, 0xbcdc36d3bc84be49U,
  0xbb426b8b3d4c3e14U, 0x3d27ab07bd193b46U, 0xbd3be840bc04976fU, 0x3c3cbf3f3c2dcd55U,
  0x3bb8b04d3d6da551U, 0xbcd55a8f3cbd63c5U, 0x3c3f7655bc941330U, 0xbc08b7843d056967U,
  0x3c86b616bd9455d4U, 0xbbbb246a3bf61264U, 0xbc7027ff3d51fa80U, 0x3cbead143c37e042U,
  0x3cbd6b513d4d81b5U, 0xbc8a4aa2bb355c31U, 0xbc475c8a3d4cac05U, 0x3bf731c0bd40ac83U,
  0x3d8268313d4c500eU, 0x3c3b33053ba5c24cU, 0x399e940f3c8ba581U, 0xbc5d477e3c081e78U,
  0xbc256f1f3d6e0a1fU, 0x3d1d5ab53cb94ba8U, 0x3ba4911dbcfe67c8U, 0x3c5ac8043d6a0c5cU,
  0xbb64112a3b5bba9aU, 0x3c90f5603c0ed757U, 0xbcf86a22bd66606bU, 0xbd171be83d14e0fcU,
  0x3dc24fca3dcdfe9fU, 0x3c061c453d81dbcaU, 0x3d5c46453ba5fef9U, 0x3d40c41d3d61bfdfU,
  0x3c3c9c1bbcd24f5dU, 0x3d9152793dd2a6ecU, 0x3d00db293c18ea3aU, 0x3d8d18233cc4c8d5U,
  0x3d9d8b6b3d767620U, 0x3d3a6480bbe19d83U, 0x3d6978773b06a8deU, 0x3d4577ba3d18bed0U,
  0x3d4cf3fe3c83b9e9U, 0x3d7b23d0bd03e1d9U, 0x3da815ce3d8c451cU, 0x3d14cac93da8a13fU,
  0x3d884b473d8630deU, 0xbddc56fdbd087d90U, 0xbcae492c3cba7552U, 0xbd90395dbba62a5cU,
  0xbce071ef3bae5e4fU, 0xbd6cb9a1bd244c1cU, 0xbce5f4c3bd1a4758U, 0x3b865e7dbd18207aU,
  0x3c38be8e3cce0c30U, 0x3b86f2213cdc0302U, 0x3d1254c2bc891c4bU, 0x3cac2263bcfc260fU,
  0x3c9656ab3d0fe71cU, 0xbd254dfdbd972ae9U, 0xbc341304bcf56cbaU, 0xbd97d89e3bfa1bafU,
  0xbd80e436bbdf2f26U, 0x3c790248bd22136aU, 0x3d0df941bce77616U, 0xbd49ee4dbb2ef7eaU,
  0x3cf0a537bc186e23U, 0xbc972fda3d884d49U, 0xbaa512cebdae6e9eU, 0x3d78c10c3b8949c8U,
  0xbda6a7ed3ba1d9d4U, 0xbd1c3f7ebd4c6603U, 0xbd2eb5223c5089fcU, 0xbc960e5d3c9a5ea4U,
  0xbc9d4bfa3ba623baU, 0xbc7dee6b3bef901fU, 0x3c98d8e0bcffdee7U, 0x3cf5e119bd1a2386U,
  0xbd0ac801bc7c11a9U, 0x3c3c2bda3cf44079U, 0xbd4b4164bd09a2e2U, 0xbcbc2300bcc5fa41U,
  0xbd34c45cbc68d444U, 0xbd9ec1713c8793a7U, 0x3cb4e2dfbc5a6a25U, 0x3d02ad6c3d31328fU,
  0xbd4ca24cbdb95e0bU, 0x3d2b13a7bcdcf354U, 0xbd575bccbc9d6d80U, 0x3c2d5370bd70e2c6U,
  0xbd9bab01bcb636cfU, 0xbcb13e25bd3eb920U, 0xbd332cc83cc3fe89U, 0x3c3b5443bb3c0a25U,
  0xbd0a9ab6bbf0768dU, 0x3ca40dabbc8da5d7U, 0x3bad1f783c81a072U, 0xbc33c886bc901777U,
  0x3b73d8e8bd3d5022U, 0x3c98b276bc5022d5U, 0x3d1612a13d26092dU, 0xbd3b792abb61adb1U,
  0x3d6294abbd61b10bU, 0xbcac55c439c15df0U, 0x3d47be343d0ae41eU, 0xbd1e37603ceba2fcU,
  0x3df72fedbcbff3afU, 0x3d9393bc3dc94b23U, 0x3c5a616c3d4217a1U, 0x3d8e02753d118925U,
  0xbc2c7751bcde4ce1U, 0x3d20c8353cdf35deU, 0x3c00f1ae3d224525U, 0x3ceec1a63c937264U,
  0x3bdac0e8bc997e4cU, 0x3c1dcbb53b9491c1U, 0x3d9721d33d83a4d6U, 0x3d9922703d00f48bU,
  0x3c0f27f33d670d6cU, 0x3d4186ebbb99e424U, 0x3dae805f3ce0efecU, 0xbab3843dbd920ab9U,
  0x39ff9ca83d7df73bU, 0xbd5652b5bd148a18U, 0xbaab36383c70f14aU, 0xbca553123c3f973fU,
  0x3d70648abd22f4e9U, 0xbb0e3f083c28779fU, 0xbc097eb2bd9b60d3U, 0x3d3c91eb3d51132fU,
  0xbb54bdc3bd7c38dfU, 0xbcb80633bd026befU, 0xbcc45dc6bd2c7ae7U, 0xbcd00d44bce3a2caU,
  0xbd33043fbd44d9fbU, 0xbd77cab7bb796e86U, 0xbce1aa8b3bcd087aU, 0xbbcf86943c8d94c8U,
  0xbc8464aabc83981bU, 0x3d13b0a23c67b876U, 0x3d0af23c3b8a58bbU, 0x3dd19778bc92d33aU,
  0xbcc731403dc98672U, 0x3d9918f9bc52f875U, 0x3d4f39c73de2b38eU, 0x3d9cdba4bc3b0d1eU,
  0x3d1f30c83d3c12a0U, 0xbc9a4be93d9d2492U, 0x3d99c3dbbbb71cd6U, 0x3d5c2c5a3ce4c7e1U,
  0x3d4836623c0b65f3U, 0x3c7d15e83d902907U, 0x3d0c73dbbc068973U, 0x3ce447343d891fd0U,
  0x3d94e6363c5d5c3cU, 0x3c1950143d3fcda5U, 0x3dddecb83da620a4U, 0x3d4f08593dd367f8U,
  0x3ca85801bdb66e8cU, 0x3a4ef2643da430c9U, 0xbcbf19f2bd10ee22U, 0x3d355cc9bb008b95U,
  0x3d1c774e3c8a5470U, 0xbbccfd0bbd88abe1U, 0xbd399bf13c97e148U, 0xbd117844bc82d92fU,
  0xbd51ae663d381c37U, 0x3c83295ebd474acbU, 0x3d77dd08bb58aa8dU, 0x3cdcafe6bc80d861U,
  0xbb99bfb6bd081248U, 0x3ce672f23d48dc2fU, 0xbc320686bd31ddedU, 0xbcdde0163c3a704fU,
  0xbcf63fcabc545ac4U, 0xbdad65fe3ca8f381U, 0xbd262315bc835f16U, 0xbbb840423ca43248U,
  0x3cc8141ebd160984U, 0xbbde93d2bd753bd4U, 0x3d3ecb10bc044a9cU, 0xbdd69fb7bd91faf0U,
  0x3cb0ece6bd978d2fU, 0xba7b336e3c9489bbU, 0xbdaade1abc8e75aeU, 0xbc639802bd3ee98aU,
  0xbd9def2e3caeb763U, 0x38e189afbc9c0648U, 0xbdc5e22ebd452bdfU, 0xbd9c20efbb9202cfU,
  0xbd9fc0b6bcc0af99U, 0xbce1e19abcc0bbc1U, 0xbd80d84ebd22be4cU, 0xbd80cafdbb1f84deU,
  0xbd6f4986bdda9710U, 0xbdbef89b3c21cd25U, 0xbc37fddabc8cdecbU, 0xbd2ab7f7bd73eba2U,
  0xbd67b403bd0eca82U, 0xbd7e45ac3ca1e0b6U, 0x3be527d4bd1d22f8U, 0xbbb9905dbc8ffd8fU,
  0xbc73fe8cbbd7adffU, 0x3c1158703d5af13aU, 0x3cb18be8bccbbc0bU, 0xbb08c7c9bd9d4686U,
  0xbca34a033b9225edU, 0x3c9fe5c63d077b6dU, 0xbcbf32b4bc06cca0U, 0xbd810c12bbb178caU,
  0xbc397ec73bf737acU, 0xbd9afb9b3cb87189U, 0x3c3b0419bd92188cU, 0xbc41f01abd21d991U,
  0x3d4253d53d5adcc6U, 0xbb6babf13b28411eU, 0xbce90be2bd12b0bbU, 0x3d03a31b3d1f3826U,
  0xbc106a063d2e025cU, 0xbca0065e3af4d096U, 0x3ceacd7d3cabc287U, 0x3cc42d873d292fc7U,
  0x3d404550bc46fcf7U, 0xbc3b9e6ebcb9b533U, 0xbcd869013d9ba0f9U, 0xbc9e2bab3cec98feU,
  0x3d0e8ba1bcfbee94U, 0x3c5de49fba5f34e1U, 0x3d01d963bc9f2794U, 0x3d05ef2cbd076550U,
  0x3d9c61c23ba57679U, 0x3b2064a43c913a38U, 0xbc1f137ebc8aff5cU, 0xbbc6fd093d3d16b3U,
  0xbcc93fafbd2f32e2U, 0xbbaf389b3cc71359U, 0xbc7858f83cce595eU, 0xbc5fb931bdb87c88U,
  0xbca0db34bc3b2968U, 0xbd3e22d23b1f82efU, 0x3d2c5d2c3cf38453U, 0xbc11c5ccbda253e1U,
  0xbc9a2ca1bb12c27dU, 0xbc5884c43d04187eU, 0xbd31bc9e3cbbc306U, 0x3cd28e4ebbf69628U,
  0xbd2869b0bd4e62f4U, 0xbd15a3dcbca76654U, 0x3d2983133aaefc42U, 0xbc8ddfa4bd0d6e94U,
  0xbd9e04ccbd44645fU, 0xbda44ce1be04bfb2U, 0xbd1076fbbafdbb61U, 0xbd2d53d8bdb8cd24U,
  0x3b6408ac3bcf94bdU, 0xbd93759fbd50a104U, 0xbc2af2e6bc30dc8eU, 0xbd60ca59bcfc4963U,
  0xbbb31b8cbd9e1214U, 0xbdb7540cbd766a35U, 0xbcb6b343bc9293abU, 0xbda470043c568f10U,
  0x3d325df4bd125fc8U, 0xbd89ad0e3c305e0dU, 0xbd35c1ebbca2f950U, 0xbd065533bcebd4e4U,
  0xbcb53767bde7f43bU, 0x3d4ca4aabd042b71U, 0xbd8a2bf3bca32678U, 0x3b9b88673a999700U,
  0xbd192b9a3c3913c4U, 0x3d80dcf6bc283cfeU, 0x3b3488673ca3f3d7U, 0x3c291295bceeb298U,
  0xbd162eb33b9feebeU, 0xbcb3f6ca3b0e7dd1U, 0xbc4315dd3d8c1c37U, 0xbd180010bd105dd6U,
  0xbc5bc4d6bc201d63U, 0x3b1d4d8ebc188ba2U, 0xbc043ea7bbaafdf4U, 0x3d3f64b93c48ea95U,
  0x3c8d1aeebd38663aU, 0xbd835feb3bc221eeU, 0xbd3ad09cbc723e56U, 0x3bb375c73c9fc6a1U,
  0xbbad454dbc84a4feU, 0x3c449b25bdfa587dU, 0xbcd03d963d229371U, 0x3ce50bb83d02e7a7U,
  0xbbb9cac13c522b52U, 0x3c84eafbbbf7b0d8U, 0x3c2b975c3a356da6U, 0x3cf410fc3c7fb450U,
  0xbcb4c2913c22f88bU, 0xbb9117d1bcb1a3b0U, 0x3a8f34723d51f845U, 0x3b788438bc477f94U,
  0x3d0b620a3d392ca0U, 0x3c84ebbebcdddd8eU, 0x3c7e0b373c1b0f66U, 0x3a8fec70bc63a5c2U,
  0x3c384615bd1131d9U, 0xbc82597a3c76a635U, 0xbd00529c3b8b7d6bU, 0x3cf4196cbc7e5335U,
  0x3cbe5fe23d3e6f86U, 0x3c7c8b0a3d17b64aU, 0x3d634870bcd8620eU, 0x3c429a5cbac8987aU,
  0x3d9aec223cbfd977U, 0x3bc5122c3c61bda6U, 0x3d81527a3d41f2efU, 0xbd63e6853ce1b4deU,
  0x3cd2350dba415dc6U, 0x3cafd894bc1a817aU, 0xbd1316f1bd3ad84aU, 0x3da3c5e83cc1b849U,
  0x3cfb2b89ba459736U, 0x3d130b9cbca11ab6U, 0xbd0c26183c323358U, 0x3cbd30783da9763dU,
  0x3d2c72a7bcc205b6U, 0x3bf64f193d2f05a2U, 0xbd258c1e3d1cc67fU, 0xbbbc11913c924cb4U,
  0x3c33fe6fbcfa3773U, 0xbcc947a73c76ccb4U, 0x3d86eba73c808ebeU, 0x3cba46653ca84209U,
  0x3d18f347bb5f8355U, 0xbc718b07bc9bdda3U, 0x3cbaadfbbc249583U, 0x3d2f62fdbbc004cbU,
  0xbceeca413d0c5724U, 0x3d632e82bb08a062U, 0x3d6283cc3cc877dbU, 0x3d221835bd322dc8U,
  0x3bdfedb23d2ae953U, 0x3d13089d3bfc00d3U, 0xbc88a104bc49768eU, 0x3d9be6dd3d8de43cU,
  0x3c6585c13b92acceU, 0x3c27a9dc3c55fca3U, 0x3aab2bd0bc1174c1U, 0xbc3fa1073c5c970fU,
  0x3c2813653d5a62efU, 0x3d5713b7bce46c29U, 0x3bb0b4693b3928f6U, 0x3ce810e13d665935U,
  0xbc046fa73c87be21U, 0x3d62a0f23d14ae24U, 0x3bfd1302bbb9b1f0U, 0x3d09a5a63da8218eU,
  0x3d51da09bd18f8eaU, 0xbd1225513cabb389U, 0xbc0abf1e3d0c742aU, 0x3ce7d76d3d6a35f5U,
  0x3d281175bb2c5addU, 0xbce8ca4f3d896762U, 0xbcd83a183d061306U, 0xbacf26d1bb563e40U,
  0xbd2032593d8b6ca1U, 0xbc1b74e13d8aa782U, 0x3d0d5d0f3d90bdd0U, 0x3bdb8da7bd8cf328U,
  0xbbe824333bde6647U, 0xbd275213bb4c64eaU, 0x3d2516de3d844f5bU, 0x3d24e4f13d113e27U,
  0xbbf407423d5a1a49U, 0x3d4d62a7bc36a88dU, 0xbd4b5612bc8adc85U, 0x3d18ab733d1019beU,
  0xbc943bce3c08fc06U, 0x3d006fb43bdb7db7U, 0x3c4d2ddabca9ae0dU, 0x3d3d6f493d34b22aU,
  0x3dcd32a0bc83c6adU, 0xbbc1e1da3d0230f0U, 0xbd0feba13be323fbU, 0xbd16bbb4bd1c611fU,
  0xbc9836b3bd44fd7aU, 0xbca38abe3bcb3dedU, 0x3d183496bcafba3cU, 0xbcf05dc93cea312dU,
  0xbd348ca63b5ba079U, 0x3c45a9393cf314f0U, 0xbcfb98b8bd2f3d7eU, 0x3cb208e93a7ad2bdU,
  0xbcb03714bd4de44fU, 0xbcb51960bc06f8fdU, 0xbc6334f0bd0f4ecbU, 0xbd23bb96bd1fdd78U,
  0xbd127341bcc29b77U, 0xbbdb2e17bc76025dU, 0xba044d05bbc4b9c6U, 0x3ba22c0cbcc63629U,
  0x3c65f4da3cc670bbU, 0x3c95d621bcf5d453U, 0xbd2398e4bccd8269U, 0xbb87ba75bd5d4728U,
  0xbd4a7c123bb94d96U, 0x3909cd89bd438dd6U, 0xbe0302cb3d00d06cU, 0x3d4e5511bd03024fU,
  0xbd53520abd10023cU, 0xbd84b89ebb795d8bU, 0xbc8b3636bd05f0c7U, 0xbd3d8467bc9f7f85U,
  0xbce8f9a5bccdc4c2U, 0xbd3dffc5bcdbb11bU, 0xbd4da128bcac153fU, 0xbda7e5c4bc53501bU,
  0x3d3278cb3c19d73aU, 0xbd50219dbd690038U, 0x3c37200e3d33a4b2U, 0xbc6480ae3d6ee3d1U,
  0x3d0c47523cea5bb4U, 0x3cd8d65c3c5b6b0dU, 0x3c6b9ec8bc8116a7U, 0xbaa654cc3bb31e2cU,
  0x3cb2582f3d52f86aU, 0xbba9fa573d26b7adU, 0xbc86e5eb3d6d49ddU, 0xba403e81bb07620eU,
  0x3bf20c933c374507U, 0x3a4090703bfc936bU, 0x3ca1e6093d3636f8U, 0x3bb926003ba137a5U,
  0x3d2c7c5dbcc9f7fbU, 0x3c84d6343cccb867U, 0x3ca1abae3c2564efU, 0xbb8fb9ebbb8b1ccaU,
  0xbcd84cf93d53d373U, 0xbd2d78273ca3231dU, 0x3ce8f295bcf28ea4U, 0x3c9ba2ca3ba87570U,
  0x3d042cbd3bf2fc86U, 0x3b347f5abd4874baU, 0xbd0fd982bc466c37U, 0xbce9682dbc0fde28U,
  0x3bd469943c094d6bU, 0x3d6268bf3d1a4e32U, 0xbd0a37c7bc280fd1U, 0x3c30e94abd24d193U,
  0x3d3164afbc8464caU, 0x3d5f92983d6d7a0dU, 0x3cced6a53c9a1dd0U, 0xbc280a1c3cbef97dU,
  0x3c55bf743c3d4842U, 0x3d63bc523c9d0b3dU, 0x3d19ad08bc03e502U, 0x3cd0ee053b2a6ec0U,
  0xbb4a4548bc16fb04U, 0x3c81e8bdbba87a63U, 0x3c696455bc74835eU, 0x3c802b9d3d306322U,
  0x3d46749c3d1d88e1U, 0xbcf769bbbd3eaeb3U, 0x3cadb6e83c6f1fc3U, 0x3d64f2dfbd537761U,
  0xbcfd88233bfa2572U, 0x3d77ac08bc916d54U, 0x3c9a80913be77b0cU, 0x3c8f15e33c1e4da7U,
  0x3bf0a804bb8d7e1cU, 0xbb6109b2bc43c2c8U, 0xbc04ff8abd04bedaU, 0xbc586962bc22639fU,
  0x38cd67133bee072cU, 0x3b408ffc3c96ef60U, 0xbcdd5e84bd419fbcU, 0xbc97c94dbbe378e5U,
  0xbd142f733c8b7bb2U, 0x3c0c936ebb979657U, 0xbdb0278bbc3642f1U, 0x3d057f43bd5c4585U,
  0xbd1bd1b33c17d14dU, 0x3c2bcf0d3b46e1feU, 0xbc4207c0bd7ca90eU, 0xbd46926c3d0ef85fU,
  0xba9e7f80bd0b82c4U, 0xbc05cc59bd8bb241U, 0xbc9a239fbd3f5fbaU, 0xbc01002bbd24544aU,
  0xbc6b7cd7bc757e20U, 0xbd3311d5bc945a45U, 0xbc7931b9bcba8e66U, 0xbc1ebf4dbd7e6e60U,
